{
  "version": "1.0",
  "truncation": null,
  "padding": null,
  "added_tokens": [
    {
      "id": 0,
      "content": "<s>",
      "single_word": false,
      "lstrip": false,
      "rstrip": false,
      "normalized": false,
      "special": true
    },
    {
      "id": 1,
      "content": "<pad>",
      "single_word": false,
      "lstrip": false,
      "rstrip": false,
      "normalized": false,
      "special": true
    },
    {
      "id": 2,
      "content": "</s>",
      "single_word": false,
      "lstrip": false,
      "rstrip": false,
      "normalized": false,
      "special": true
    },
    {
      "id": 3,
      "content": "<unk>",
      "single_word": false,
      "lstrip": false,
      "rstrip": false,
      "normalized": false,
      "special": true
    }
  ],
  "normalizer": {
    "type": "NFKC"
  },
  "pre_tokenizer": {
    "type": "ByteLevel",
    "add_prefix_space": true,
    "trim_offsets": true,
    "use_regex": true
  },
  "post_processor": null,
  "decoder": null,
  "model": {
    "type": "BPE",
    "dropout": null,
    "unk_token": "<unk>",
    "continuing_subword_prefix": null,
    "end_of_word_suffix": null,
    "fuse_unk": false,
    "byte_fallback": false,
    "ignore_merges": false,
    "vocab": {
      "<s>": 0,
      "<pad>": 1,
      "</s>": 2,
      "<unk>": 3,
      "!": 4,
      "\"": 5,
      "#": 6,
      "$": 7,
      "%": 8,
      "&": 9,
      "'": 10,
      "(": 11,
      ")": 12,
      "*": 13,
      "+": 14,
      ",": 15,
      "-": 16,
      ".": 17,
      "/": 18,
      "0": 19,
      "1": 20,
      "2": 21,
      "3": 22,
      "4": 23,
      "5": 24,
      "6": 25,
      "7": 26,
      "8": 27,
      "9": 28,
      ":": 29,
      ";": 30,
      "<": 31,
      "=": 32,
      ">": 33,
      "?": 34,
      "@": 35,
      "A": 36,
      "B": 37,
      "C": 38,
      "D": 39,
      "E": 40,
      "F": 41,
      "G": 42,
      "H": 43,
      "I": 44,
      "J": 45,
      "K": 46,
      "L": 47,
      "M": 48,
      "N": 49,
      "O": 50,
      "P": 51,
      "Q": 52,
      "R": 53,
      "S": 54,
      "T": 55,
      "U": 56,
      "V": 57,
      "W": 58,
      "X": 59,
      "Y": 60,
      "Z": 61,
      "[": 62,
      "\\": 63,
      "]": 64,
      "^": 65,
      "_": 66,
      "`": 67,
      "a": 68,
      "b": 69,
      "c": 70,
      "d": 71,
      "e": 72,
      "f": 73,
      "g": 74,
      "h": 75,
      "i": 76,
      "j": 77,
      "k": 78,
      "l": 79,
      "m": 80,
      "n": 81,
      "o": 82,
      "p": 83,
      "q": 84,
      "r": 85,
      "s": 86,
      "t": 87,
      "u": 88,
      "v": 89,
      "w": 90,
      "x": 91,
      "y": 92,
      "z": 93,
      "{": 94,
      "|": 95,
      "}": 96,
      "~": 97,
      "¡": 98,
      "¢": 99,
      "£": 100,
      "¤": 101,
      "¥": 102,
      "¦": 103,
      "§": 104,
      "¨": 105,
      "©": 106,
      "ª": 107,
      "«": 108,
      "¬": 109,
      "®": 110,
      "¯": 111,
      "°": 112,
      "±": 113,
      "²": 114,
      "³": 115,
      "´": 116,
      "µ": 117,
      "¶": 118,
      "·": 119,
      "¸": 120,
      "¹": 121,
      "º": 122,
      "»": 123,
      "¼": 124,
      "½": 125,
      "¾": 126,
      "¿": 127,
      "Â": 128,
      "Ã": 129,
      "Ä": 130,
      "Å": 131,
      "Æ": 132,
      "Ç": 133,
      "È": 134,
      "É": 135,
      "Ê": 136,
      "Ë": 137,
      "Ì": 138,
      "Î": 139,
      "Ï": 140,
      "Ð": 141,
      "Ñ": 142,
      "Ò": 143,
      "Ó": 144,
      "Ô": 145,
      "Õ": 146,
      "Ö": 147,
      "×": 148,
      "Ø": 149,
      "Ù": 150,
      "Ú": 151,
      "Û": 152,
      "Þ": 153,
      "à": 154,
      "á": 155,
      "â": 156,
      "ã": 157,
      "ä": 158,
      "å": 159,
      "æ": 160,
      "ç": 161,
      "è": 162,
      "é": 163,
      "ê": 164,
      "ë": 165,
      "ì": 166,
      "í": 167,
      "î": 168,
      "ï": 169,
      "ð": 170,
      "ĉ": 171,
      "Ġ": 172,
      "Ģ": 173,
      "ģ": 174,
      "Ĥ": 175,
      "ĥ": 176,
      "Ħ": 177,
      "ħ": 178,
      "Ĩ": 179,
      "ĩ": 180,
      "Ī": 181,
      "ī": 182,
      "Ĭ": 183,
      "ĭ": 184,
      "Į": 185,
      "į": 186,
      "İ": 187,
      "ı": 188,
      "Ĳ": 189,
      "ĳ": 190,
      "Ĵ": 191,
      "ĵ": 192,
      "Ķ": 193,
      "ķ": 194,
      "ĸ": 195,
      "Ĺ": 196,
      "ĺ": 197,
      "Ļ": 198,
      "ļ": 199,
      "Ľ": 200,
      "ľ": 201,
      "Ŀ": 202,
      "ŀ": 203,
      "Ł": 204,
      "ł": 205,
      "Ń": 206,
      "an": 207,
      "Ġb": 208,
      "Ġk": 209,
      "ra": 210,
      "Ġi": 211,
      "Ġn": 212,
      "ri": 213,
      "mu": 214,
      "ya": 215,
      "sh": 216,
      "re": 217,
      "wa": 218,
      "ga": 219,
      "Ġa": 220,
      "Ġu": 221,
      "ba": 222,
      "ko": 223,
      "Ġku": 224,
      "ye": 225,
      "Ġmu": 226,
      "âĢ": 227,
      "in": 228,
      "gu": 229,
      "ma": 230,
      "we": 231,
      "za": 232,
      "gi": 233,
      "yo": 234,
      "bi": 235,
      "âĢĻ": 236,
      "ka": 237,
      "ru": 238,
      "zi": 239,
      "bu": 240,
      "te": 241,
      "yi": 242,
      "Ġba": 243,
      "ge": 244,
      "Ġya": 245,
      "and": 246,
      "ta": 247,
      "Ġbi": 248,
      "Ġgu": 249,
      "ha": 250,
      "ro": 251,
      "bo": 252,
      "go": 253,
      "tu": 254,
      "ki": 255,
      "Ġc": 256,
      "wi": 257,
      "ze": 258,
      "si": 259,
      "se": 260,
      "yu": 261,
      "me": 262,
      "ho": 263,
      "ku": 264,
      "ĠI": 265,
      "mi": 266,
      "he": 267,
      "ran": 268,
      "ti": 269,
      "Ġr": 270,
      "wo": 271,
      "Ġko": 272,
      "yan": 273,
      "Ġna": 274,
      "mo": 275,
      "sha": 276,
      "da": 277,
      "be": 278,
      "andi": 279,
      "je": 280,
      "hu": 281,
      "sho": 282,
      "ĠM": 283,
      "ĠA": 284,
      "vu": 285,
      "Ġha": 286,
      "kore": 287,
      "Ġbu": 288,
      "Ġibi": 289,
      "ĠU": 290,
      "shi": 291,
      "ban": 292,
      "mwe": 293,
      "tan": 294,
      "Ġin": 295,
      "Ġni": 296,
      "ĠK": 297,
      "Ġwa": 298,
      "sa": 299,
      "Ġumu": 300,
      "Ġubu": 301,
      "Ġy": 302,
      "rwa": 303,
      "zo": 304,
      "ana": 305,
      "ĠN": 306,
      "anda": 307,
      "Ġm": 308,
      "Ġkandi": 309,
      "ke": 310,
      "fa": 311,
      "Ġama": 312,
      "cu": 313,
      "du": 314,
      "ĠB": 315,
      "to": 316,
      "de": 317,
      "so": 318,
      "ĠR": 319,
      "han": 320,
      "Ġmuri": 321,
      "Ġno": 322,
      "fi": 323,
      "Ġgi": 324,
      "Ġaba": 325,
      "mba": 326,
      "ne": 327,
      "di": 328,
      "Ġyo": 329,
      "Ġcyan": 330,
      "Ġbya": 331,
      "nge": 332,
      "li": 333,
      "Ġari": 334,
      "tse": 335,
      "shobo": 336,
      "bere": 337,
      "zwe": 338,
      "Ġzi": 339,
      "zu": 340,
      "gira": 341,
      "gan": 342,
      "Ġru": 343,
      "Ġim": 344,
      "Ġ2": 345,
      "shin": 346,
      "kan": 347,
      "Ġw": 348,
      "Ġib": 349,
      "ĠMu": 350,
      "Ġ1": 351,
      "fu": 352,
      "gen": 353,
      "Ġki": 354,
      "fite": 355,
      "hi": 356,
      "ĠG": 357,
      "Ġkwi": 358,
      "ĠS": 359,
      "san": 360,
      "su": 361,
      "gwa": 362,
      "ubu": 363,
      "kora": 364,
      "ĠP": 365,
      "bwo": 366,
      "shobora": 367,
      "Ġcya": 368,
      "gara": 369,
      "ĠC": 370,
      "ryo": 371,
      "tanga": 372,
      "kin": 373,
      "Ġka": 374,
      "Ġigi": 375,
      "Ġbyo": 376,
      "wanda": 377,
      "Ġyi": 378,
      "yuma": 379,
      "twa": 380,
      "kome": 381,
      "umu": 382,
      "Ġkuri": 383,
      "Ġma": 384,
      "Ġimi": 385,
      "ama": 386,
      "Ġngo": 387,
      "zwa": 388,
      "rere": 389,
      "shu": 390,
      "yin": 391,
      "Ġbwa": 392,
      "nda": 393,
      "nga": 394,
      "bwa": 395,
      "na": 396,
      "Ġhamwe": 397,
      "ĠâĢ": 398,
      "ĠY": 399,
      "Ġcyane": 400,
      "Ġkuba": 401,
      "do": 402,
      "curu": 403,
      "yobo": 404,
      "aba": 405,
      "en": 406,
      "ĠT": 407,
      "shyi": 408,
      "eza": 409,
      "anya": 410,
      "va": 411,
      "men": 412,
      "pa": 413,
      "Ġuru": 414,
      "kuru": 415,
      "Ġ(": 416,
      "koresho": 417,
      "vuga": 418,
      "le": 419,
      "ci": 420,
      "Ġtu": 421,
      "Ġiki": 422,
      "ini": 423,
      "Ġ20": 424,
      "hugu": 425,
      "Ġneza": 426,
      "andu": 427,
      "Ġbwo": 428,
      "Ġza": 429,
      "korwa": 430,
      "ĠRwanda": 431,
      "ce": 432,
      "ngu": 433,
      "ĠH": 434,
      "ts": 435,
      "hin": 436,
      "rimo": 437,
      "Ġbw": 438,
      "Ġcyangwa": 439,
      "Ġri": 440,
      "riki": 441,
      "ĠUmu": 442,
      "âĢĿ": 443,
      "Ġic": 444,
      "giran": 445,
      "pe": 446,
      "ĠD": 447,
      "ni": 448,
      "Ġnta": 449,
      "giye": 450,
      "uru": 451,
      "bwi": 452,
      "hanga": 453,
      "ibi": 454,
      "Ġbyi": 455,
      "rika": 456,
      "Ġcyo": 457,
      "Ġaban": 458,
      "jwe": 459,
      "vi": 460,
      "kanye": 461,
      "tsi": 462,
      "ĠKu": 463,
      "Ġz": 464,
      "ĠâĢľ": 465,
      "ĠL": 466,
      "pi": 467,
      "tandu": 468,
      "ĠKa": 469,
      "la": 470,
      "00": 471,
      "Ġrya": 472,
      "Ġnde": 473,
      "Ġmi": 474,
      "Ġga": 475,
      "shya": 476,
      "riye": 477,
      "girango": 478,
      "ĠF": 479,
      "mbi": 480,
      "indi": 481,
      "Ġwe": 482,
      "curuzwa": 483,
      "po": 484,
      "koresh": 485,
      "Ġaka": 486,
      "Ġkugirango": 487,
      "Ġby": 488,
      "mw": 489,
      "Ġndetse": 490,
      "Ġyu": 491,
      "Ġdu": 492,
      "ciro": 493,
      "ganda": 494,
      "shyu": 495,
      "tera": 496,
      "kwi": 497,
      "on": 498,
      "Ġariko": 499,
      "biri": 500,
      "Ġkuko": 501,
      "Ġrwa": 502,
      "Ġaho": 503,
      "tandukanye": 504,
      "tege": 505,
      "Ġgihe": 506,
      "bye": 507,
      "shye": 508,
      "ĠJ": 509,
      "gera": 510,
      "Ġcy": 511,
      "Ġbwi": 512,
      "koresha": 513,
      "kana": 514,
      "yinshi": 515,
      "mana": 516,
      "rashobora": 517,
      "Ġbo": 518,
      "rana": 519,
      "ĠIn": 520,
      "sanzwe": 521,
      "yobozi": 522,
      "ĠUbu": 523,
      "ĠIbi": 524,
      "kira": 525,
      "ji": 526,
      "ĠAba": 527,
      "gani": 528,
      "ngera": 529,
      "mbo": 530,
      "gihe": 531,
      "Ġ3": 532,
      "jya": 533,
      "kiri": 534,
      "ĠE": 535,
      "bazo": 536,
      "Ġnk": 537,
      "ruka": 538,
      "intu": 539,
      "ĠGu": 540,
      "ca": 541,
      "Ġkugira": 542,
      "Ġwo": 543,
      "ĠNi": 544,
      "Ġgukora": 545,
      "Ġati": 546,
      "garaga": 547,
      "shaka": 548,
      "bera": 549,
      "Ġzo": 550,
      "Ġwi": 551,
      "um": 552,
      "mbere": 553,
      "tara": 554,
      "ngo": 555,
      "ntu": 556,
      "Ġry": 557,
      "zima": 558,
      "kuriki": 559,
      "banya": 560,
      "ranga": 561,
      "yaka": 562,
      "pu": 563,
      "byo": 564,
      "yango": 565,
      "raga": 566,
      "subi": 567,
      "fasha": 568,
      "Ġmbere": 569,
      "gize": 570,
      "Ġrw": 571,
      "ĠKi": 572,
      "Ġhari": 573,
      "tura": 574,
      "mye": 575,
      "mbu": 576,
      "komeye": 577,
      "bona": 578,
      "ĠMa": 579,
      "byi": 580,
      "roshye": 581,
      "tsin": 582,
      "Ġimbere": 583,
      "tuma": 584,
      "yeme": 585,
      "hindu": 586,
      "ĠBu": 587,
      "menye": 588,
      "bone": 589,
      "rw": 590,
      "rwe": 591,
      "uko": 592,
      "Ġibyo": 593,
      "ryango": 594,
      "koreshwa": 595,
      "Ġt": 596,
      "she": 597,
      "Ġyari": 598,
      "kaba": 599,
      "Ġnyuma": 600,
      "gomba": 601,
      "Ġuyu": 602,
      "yama": 603,
      "Ġbari": 604,
      "banu": 605,
      "here": 606,
      "Ġuko": 607,
      "nsi": 608,
      "Ġabantu": 609,
      "ndi": 610,
      "ve": 611,
      "Ġse": 612,
      "Ġcyi": 613,
      "Ġkubi": 614,
      "Ġburi": 615,
      "Ġgusa": 616,
      "vuze": 617,
      "shan": 618,
      "geza": 619,
      "Ġhan": 620,
      "Ġsi": 621,
      "im": 622,
      "turage": 623,
      "Ġkwa": 624,
      "shanya": 625,
      "Ġhe": 626,
      "mwa": 627,
      "Ġibikoresho": 628,
      "Ubu": 629,
      "fo": 630,
      "Ġnti": 631,
      "ĠHa": 632,
      "nze": 633,
      "bya": 634,
      "shimi": 635,
      "rira": 636,
      "teri": 637,
      "kene": 638,
      "ĠGa": 639,
      "ĠAma": 640,
      "man": 641,
      "Ġburyo": 642,
      "Ġrwo": 643,
      "ĠYa": 644,
      "Ġubwo": 645,
      "jyan": 646,
      "Ġumw": 647,
      "ĠBa": 648,
      "maze": 649,
      "co": 650,
      "lo": 651,
      "juru": 652,
      "Ġnubu": 653,
      "ere": 654,
      "kino": 655,
      "Ġ\"": 656,
      "cyo": 657,
      "Ġ201": 658,
      "Ġigihe": 659,
      "ĠW": 660,
      "bwe": 661,
      ".âĢĿ": 662,
      "Ġe": 663,
      "Ġavuga": 664,
      "shuri": 665,
      "hita": 666,
      "Ġgute": 667,
      "gura": 668,
      "Ġbyu": 669,
      "rin": 670,
      "komeza": 671,
      "Ġiyo": 672,
      "gana": 673,
      "shyira": 674,
      "rane": 675,
      "zamu": 676,
      "ĠRu": 677,
      "Ġaga": 678,
      "kura": 679,
      "gabo": 680,
      "genzi": 681,
      "Ġtwa": 682,
      "ani": 683,
      "nye": 684,
      "Ġmubi": 685,
      "sobanu": 686,
      "riza": 687,
      "Ġ4": 688,
      "Ġ5": 689,
      "imi": 690,
      "Ġicyo": 691,
      "Ġiyi": 692,
      "Ġibicuruzwa": 693,
      "ine": 694,
      "zira": 695,
      "Ġ202": 696,
      "fatan": 697,
      "kere": 698,
      "ngan": 699,
      "igi": 700,
      "huza": 701,
      "saba": 702,
      "razi": 703,
      "bindi": 704,
      "kiriya": 705,
      "faranga": 706,
      "ĠBi": 707,
      "genzu": 708,
      "fata": 709,
      "Ġuburyo": 710,
      "Ġye": 711,
      "ina": 712,
      "Ġnibi": 713,
      "jye": 714,
      "Ġbyinshi": 715,
      "gore": 716,
      "mbaraga": 717,
      "Ġhejuru": 718,
      "baye": 719,
      "Ġbita": 720,
      "Ġnka": 721,
      "kano": 722,
      "shanyarazi": 723,
      "ĠPa": 724,
      "rwanda": 725,
      "ndo": 726,
      "Ġrwe": 727,
      "Umu": 728,
      "shini": 729,
      "gere": 730,
      "tekano": 731,
      "Ġmwa": 732,
      "soko": 733,
      "bandi": 734,
      "no": 735,
      "geze": 736,
      "ĠIgi": 737,
      "curuzi": 738,
      "korana": 739,
      "mbe": 740,
      "ĠYe": 741,
      "Ġkw": 742,
      "Ġgutanga": 743,
      "korere": 744,
      "Ġkumu": 745,
      "gati": 746,
      "Ġmugihe": 747,
      "Ġbyose": 748,
      "shinwa": 749,
      "Ġuku": 750,
      "Ġibintu": 751,
      "ĠO": 752,
      "zida": 753,
      "ja": 754,
      "Ġkwe": 755,
      "enshi": 756,
      "Ġmubu": 757,
      "shinzwe": 758,
      "shyuhe": 759,
      "ĠUru": 760,
      "renge": 761,
      "Ġ/": 762,
      "twe": 763,
      "Ġmunsi": 764,
      "ziza": 765,
      "ter": 766,
      "cya": 767,
      "ĠLe": 768,
      "Ġkubu": 769,
      "Ġre": 770,
      "Ġryi": 771,
      "ĠV": 772,
      "guru": 773,
      "Ġkubera": 774,
      "rani": 775,
      "Ġ-": 776,
      "wu": 777,
      "tariki": 778,
      "mashini": 779,
      "ubwo": 780,
      "iki": 781,
      "zuba": 782,
      "Ġguha": 783,
      "ranye": 784,
      "Ġban": 785,
      "garuka": 786,
      "ĠNya": 787,
      "ĠPere": 788,
      "Ġbiga": 789,
      "tegeko": 790,
      "nyi": 791,
      "tsinda": 792,
      "rwanya": 793,
      "rongo": 794,
      "tekere": 795,
      "kozwe": 796,
      "ĠPo": 797,
      "genda": 798,
      "twara": 799,
      "rivi": 800,
      "Ġ6": 801,
      "shinga": 802,
      "meza": 803,
      "gali": 804,
      "kije": 805,
      "hitamo": 806,
      "kwa": 807,
      "zaba": 808,
      "Ġata": 809,
      "shushan": 810,
      "Ġbyiza": 811,
      "Ġiri": 812,
      "Ġkure": 813,
      "mere": 814,
      "ĠCo": 815,
      "saru": 816,
      "side": 817,
      "ĠPerezida": 818,
      "Ġrwego": 819,
      "Ġpo": 820,
      "Ġnziza": 821,
      "Ġkugeza": 822,
      "..": 823,
      "Ġmwaka": 824,
      "guri": 825,
      "giza": 826,
      "Ġaha": 827,
      "inisi": 828,
      "riro": 829,
      "Ġmo": 830,
      "nde": 831,
      "ano": 832,
      "subizo": 833,
      "Ġ19": 834,
      "jyanye": 835,
      "genzura": 836,
      "bana": 837,
      "garagara": 838,
      "doka": 839,
      "korera": 840,
      "terambere": 841,
      "Ġyavuze": 842,
      "Ġifite": 843,
      "shije": 844,
      "Ġhagati": 845,
      "ĠIki": 846,
      "saruro": 847,
      "Ġbara": 848,
      "ĠGi": 849,
      "zuye": 850,
      "Ġserivi": 851,
      "komeje": 852,
      "riko": 853,
      ").": 854,
      "garagaza": 855,
      "rekana": 856,
      "rasi": 857,
      "ande": 858,
      "Ġumwe": 859,
      "Ġp": 860,
      "Ġimbaraga": 861,
      "kikije": 862,
      "20": 863,
      "shushanyo": 864,
      "ju": 865,
      "Ġbite": 866,
      "pam": 867,
      "Ġbenshi": 868,
      "Ġkuru": 869,
      "zweho": 870,
      "ĠKigali": 871,
      "hora": 872,
      "Ġbaka": 873,
      "inyu": 874,
      "mva": 875,
      "er": 876,
      "Ġbira": 877,
      "gano": 878,
      "ngere": 879,
      "Ġkuga": 880,
      "Ġbaba": 881,
      "sange": 882,
      "tego": 883,
      "shobozi": 884,
      "Ġgukoresha": 885,
      "buhanga": 886,
      "bara": 887,
      "Ġgihugu": 888,
      "Ġbata": 889,
      "siye": 890,
      "dukikije": 891,
      "Ġbitandukanye": 892,
      "Ġcyu": 893,
      "sabwa": 894,
      "kozi": 895,
      "nini": 896,
      "Aba": 897,
      "bantu": 898,
      "ĠMuri": 899,
      "menya": 900,
      "hunda": 901,
      "ĠLeta": 902,
      "tiri": 903,
      "sanga": 904,
      "site": 905,
      "Ġumuntu": 906,
      "Ġhanze": 907,
      "Ġbafite": 908,
      "koze": 909,
      "uka": 910,
      "Ġtariki": 911,
      "ue": 912,
      "Ġakaba": 913,
      "Ġrusange": 914,
      "tero": 915,
      "Ġs": 916,
      "Ġte": 917,
      "buga": 918,
      "Ġkuva": 919,
      "modoka": 920,
      "shwa": 921,
      "ĠâĢĺ": 922,
      "koreshe": 923,
      "rya": 924,
      "Ġibya": 925,
      "eno": 926,
      "sitemu": 927,
      "koranabuhanga": 928,
      "zirane": 929,
      "ĠZ": 930,
      "ziranenge": 931,
      "ing": 932,
      "âĢĿ.": 933,
      "inji": 934,
      "gari": 935,
      "mbwa": 936,
      "jyi": 937,
      "ĠKo": 938,
      "ĠRe": 939,
      "Ġara": 940,
      "gami": 941,
      "zama": 942,
      "Ġserivisi": 943,
      "dwa": 944,
      "shize": 945,
      "Ġbyoroshye": 946,
      "mp": 947,
      "Ibi": 948,
      "rwego": 949,
      "terere": 950,
      "Ġho": 951,
      "ĠMinisi": 952,
      "rinda": 953,
      "Ġharimo": 954,
      "Ġamazi": 955,
      "pfu": 956,
      "),": 957,
      "Ġgahunda": 958,
      "renga": 959,
      "kwiye": 960,
      "yoboro": 961,
      "pamvu": 962,
      "reke": 963,
      "Ġntabwo": 964,
      "Ġamafaranga": 965,
      "Ġrwi": 966,
      "rutse": 967,
      "jo": 968,
      "insi": 969,
      "inshi": 970,
      "mari": 971,
      "tangiye": 972,
      "seze": 973,
      "gufu": 974,
      "Ġahu": 975,
      "Igi": 976,
      "bare": 977,
      "ĠAti": 978,
      "Ġbose": 979,
      "Mu": 980,
      "enoside": 981,
      "gero": 982,
      "Ġkimwe": 983,
      "tso": 984,
      "furika": 985,
      "Ġ7": 986,
      "Ġyose": 987,
      "ĠJenoside": 988,
      "Ġbe": 989,
      "st": 990,
      "lisi": 991,
      "keneye": 992,
      "Ġuwo": 993,
      "yiza": 994,
      "hare": 995,
      "tangira": 996,
      "Ġ10": 997,
      "vuta": 998,
      "bonye": 999,
      "Ġnya": 1000,
      "siga": 1001,
      "fati": 1002,
      "hariye": 1003,
      "Ġniba": 1004,
      "yungu": 1005,
      "ngeye": 1006,
      "ĠMi": 1007,
      "ranya": 1008,
      "ingo": 1009,
      "tswe": 1010,
      "Ġabaturage": 1011,
      "Ġmw": 1012,
      "Ġ8": 1013,
      "duko": 1014,
      "ĠImana": 1015,
      "Ku": 1016,
      "Ġibikorwa": 1017,
      "In": 1018,
      "ĠTu": 1019,
      "Ġafite": 1020,
      "Ġimikorere": 1021,
      "Ama": 1022,
      "Ġiz": 1023,
      "tegu": 1024,
      "ĠRa": 1025,
      "ll": 1026,
      "Ġyara": 1027,
      "ĠSa": 1028,
      "tungan": 1029,
      "gurisha": 1030,
      "Ġubuzima": 1031,
      "Ġabana": 1032,
      "Ġimp": 1033,
      "kwe": 1034,
      "Ġira": 1035,
      "ywa": 1036,
      "siyete": 1037,
      "hindura": 1038,
      "inya": 1039,
      "Ġbiza": 1040,
      "Ġyubu": 1041,
      "Ġahan": 1042,
      "Ġimyaka": 1043,
      "kire": 1044,
      "ziga": 1045,
      "nya": 1046,
      "Ġnyinshi": 1047,
      "Ġbaza": 1048,
      "kobwa": 1049,
      "mera": 1050,
      "tabi": 1051,
      "Ġyacu": 1052,
      "kunda": 1053,
      "Ġyaba": 1054,
      "Ġbikorwa": 1055,
      "horo": 1056,
      "bwira": 1057,
      "yoni": 1058,
      "bura": 1059,
      "Ġkubona": 1060,
      "mbye": 1061,
      "handa": 1062,
      "Ġmili": 1063,
      "Ġisi": 1064,
      "taka": 1065,
      "tangaje": 1066,
      "Ġnibindi": 1067,
      "Ġubuziranenge": 1068,
      "Ġuruhare": 1069,
      "Ġumutekano": 1070,
      "000": 1071,
      "merika": 1072,
      "sosiyete": 1073,
      "tyo": 1074,
      "Ġiza": 1075,
      "Ġahubwo": 1076,
      "Ġyan": 1077,
      "dasanzwe": 1078,
      "Ġbaha": 1079,
      "sin": 1080,
      "tekerezo": 1081,
      "diri": 1082,
      "Ġfi": 1083,
      "gije": 1084,
      "mbara": 1085,
      "Ġsisitemu": 1086,
      "Ġabi": 1087,
      "ĠImi": 1088,
      "Ġaza": 1089,
      "mvi": 1090,
      "Ġbaga": 1091,
      "Ġumusaruro": 1092,
      "zamura": 1093,
      "teka": 1094,
      "anga": 1095,
      "gisha": 1096,
      "kun": 1097,
      "igihugu": 1098,
      "gene": 1099,
      "Ġisoko": 1100,
      "Ġkugera": 1101,
      "Ġtwi": 1102,
      "Ġingaruka": 1103,
      "tutsi": 1104,
      "yongera": 1105,
      "Ġbwiza": 1106,
      "Ġitanga": 1107,
      "tatu": 1108,
      "Ġkabiri": 1109,
      "Ġyumu": 1110,
      "tebe": 1111,
      "Ġicya": 1112,
      "fungu": 1113,
      "kinnyi": 1114,
      "hova": 1115,
      "ic": 1116,
      "tion": 1117,
      "Ġikin": 1118,
      "mwi": 1119,
      "shatsi": 1120,
      "Ġamakuru": 1121,
      "mya": 1122,
      "karere": 1123,
      "Ġmugu": 1124,
      "ngi": 1125,
      "Ġirashobora": 1126,
      "Ġwari": 1127,
      "Ġika": 1128,
      "rire": 1129,
      "Ġnu": 1130,
      "Ġkugenzura": 1131,
      "twi": 1132,
      "Ġgusu": 1133,
      "byeyi": 1134,
      "ou": 1135,
      "Ġ0": 1136,
      "el": 1137,
      "shakashatsi": 1138,
      "Ġnko": 1139,
      "ĠYehova": 1140,
      "pimo": 1141,
      "ĠSi": 1142,
      "Ġryo": 1143,
      "ganiro": 1144,
      "tima": 1145,
      "Ġyin": 1146,
      "Ġ,": 1147,
      "fe": 1148,
      "bwenge": 1149,
      "tanu": 1150,
      "Ġbirashobora": 1151,
      "gendo": 1152,
      "Ġmpu": 1153,
      "Ġabandi": 1154,
      "Ġibyuma": 1155,
      "Ġubwi": 1156,
      "Ã©": 1157,
      "banza": 1158,
      "Ġkurwanya": 1159,
      "Ġubushyuhe": 1160,
      "Ġikibazo": 1161,
      "hereza": 1162,
      "Ġibibazo": 1163,
      "Ġ9": 1164,
      "Ġnin": 1165,
      "19": 1166,
      "rt": 1167,
      "sti": 1168,
      "zwi": 1169,
      "hanzi": 1170,
      "menyetso": 1171,
      "que": 1172,
      "yije": 1173,
      "tungo": 1174,
      "ane": 1175,
      "ruko": 1176,
      "tare": 1177,
      "ganira": 1178,
      "ĠAfurika": 1179,
      "Ġufite": 1180,
      "ss": 1181,
      "Ġrero": 1182,
      "tumwa": 1183,
      "zego": 1184,
      "yuba": 1185,
      "ĠSe": 1186,
      "Ġyawe": 1187,
      "fatanye": 1188,
      "vuduko": 1189,
      "Ġ15": 1190,
      "Ġisu": 1191,
      "tegan": 1192,
      "pfo": 1193,
      "Ġmuburyo": 1194,
      "imyaka": 1195,
      "Ġguhu": 1196,
      "Ġubure": 1197,
      "rano": 1198,
      "Ġo": 1199,
      "game": 1200,
      "kubi": 1201,
      "Ġbacu": 1202,
      "goro": 1203,
      "Ġnigi": 1204,
      "gezweho": 1205,
      "pira": 1206,
      "al": 1207,
      "Ġabo": 1208,
      "Ġhafi": 1209,
      "mweru": 1210,
      "ĠNa": 1211,
      "dafite": 1212,
      "Ġbika": 1213,
      "ol": 1214,
      "Ġkuvu": 1215,
      "mura": 1216,
      "hise": 1217,
      "ĠKagame": 1218,
      "soho": 1219,
      "PR": 1220,
      "Ġyabo": 1221,
      "shimira": 1222,
      "Ġpa": 1223,
      "kunga": 1224,
      "Ġumwanya": 1225,
      "vuye": 1226,
      "Ġbatu": 1227,
      "rije": 1228,
      "gingo": 1229,
      "tunganya": 1230,
      "kiko": 1231,
      "yon": 1232,
      "Ġgukoreshwa": 1233,
      "Ġkugabanya": 1234,
      "raho": 1235,
      "ĠUmuyobozi": 1236,
      "moka": 1237,
      "tonde": 1238,
      "fashe": 1239,
      "poro": 1240,
      "humbi": 1241,
      "menyi": 1242,
      "kungu": 1243,
      "mbuye": 1244,
      "muri": 1245,
      "maro": 1246,
      "bikorwa": 1247,
      "Ġguhuza": 1248,
      "rohe": 1249,
      "ĠCa": 1250,
      "rwaho": 1251,
      "Ġimashini": 1252,
      "ibindi": 1253,
      "ĠMo": 1254,
      "Ġbituma": 1255,
      "hinzi": 1256,
      "banyarwanda": 1257,
      "kani": 1258,
      "shwe": 1259,
      "Ġimwe": 1260,
      "ris": 1261,
      "Ġmaze": 1262,
      "Ġbamwe": 1263,
      "dwara": 1264,
      "Ġkarere": 1265,
      "tangi": 1266,
      "Ġnaba": 1267,
      "puro": 1268,
      "min": 1269,
      "koresheje": 1270,
      "Ġmwi": 1271,
      "papuro": 1272,
      "abandi": 1273,
      "Ġubushobozi": 1274,
      "Ġkongera": 1275,
      "kini": 1276,
      "Ġbyin": 1277,
      "bintu": 1278,
      "Ġabakiriya": 1279,
      "oma": 1280,
      "Ġnama": 1281,
      "fuza": 1282,
      "Ġ30": 1283,
      "Ġ12": 1284,
      "Ġahantu": 1285,
      "fatanya": 1286,
      "Ġbyacu": 1287,
      "Ġingufu": 1288,
      "guzi": 1289,
      "Ġbabi": 1290,
      "banze": 1291,
      "Ġbifite": 1292,
      "zamahanga": 1293,
      "kon": 1294,
      "tora": 1295,
      "kina": 1296,
      "kazi": 1297,
      "ĠMinisitiri": 1298,
      "tari": 1299,
      "Ġbavuga": 1300,
      "shingiye": 1301,
      "Ni": 1302,
      "ĠIyo": 1303,
      "Ġme": 1304,
      "hinduka": 1305,
      "shuro": 1306,
      "tore": 1307,
      "ĠAmerika": 1308,
      "kiye": 1309,
      "yenda": 1310,
      "hana": 1311,
      "Ġicyi": 1312,
      "Ġhanyuma": 1313,
      "Ġgufata": 1314,
      "Ġgushi": 1315,
      "Ġnku": 1316,
      "swa": 1317,
      "abantu": 1318,
      "Ġibyi": 1319,
      "Ġbityo": 1320,
      "ĠDu": 1321,
      "Ġgushyira": 1322,
      "Ġibidukikije": 1323,
      "ĠJe": 1324,
      "bunga": 1325,
      "yobora": 1326,
      "byiruko": 1327,
      "Ġnki": 1328,
      "yemezo": 1329,
      "Ġiha": 1330,
      "ĠIyi": 1331,
      "Ġkujya": 1332,
      "ry": 1333,
      "inini": 1334,
      "Ġmiliyoni": 1335,
      "ĠFC": 1336,
      "kara": 1337,
      "ĠDi": 1338,
      "Ġmuma": 1339,
      "ĠUyu": 1340,
      "gamba": 1341,
      "bonera": 1342,
      "Ġbye": 1343,
      "uga": 1344,
      "yandi": 1345,
      "shoboka": 1346,
      "bwiye": 1347,
      "kuri": 1348,
      "korewe": 1349,
      "Ġuri": 1350,
      "ĠKarere": 1351,
      "ĠMe": 1352,
      "tanda": 1353,
      "muga": 1354,
      "Ġyeme": 1355,
      "Ġbiri": 1356,
      "Ġiga": 1357,
      "kenewe": 1358,
      "teye": 1359,
      "Ġngombwa": 1360,
      "Ġkire": 1361,
      "zewe": 1362,
      "Ġbishobora": 1363,
      "Ġwu": 1364,
      "Ġiterambere": 1365,
      "ĠIm": 1366,
      "boneka": 1367,
      "sezerano": 1368,
      "Ġbiba": 1369,
      "Ġinama": 1370,
      "nyama": 1371,
      "Ġkubaka": 1372,
      "ĠNo": 1373,
      "mini": 1374,
      "aga": 1375,
      "AN": 1376,
      "Ġkumenya": 1377,
      "ch": 1378,
      "rd": 1379,
      "Ġdi": 1380,
      "Ġcyiza": 1381,
      "ĠNyuma": 1382,
      "Ġzu": 1383,
      "ĠAbatutsi": 1384,
      "Ġbutandukanye": 1385,
      "sirika": 1386,
      "ĠYagize": 1387,
      "Ġgito": 1388,
      "sanze": 1389,
      "kurikije": 1390,
      "genewe": 1391,
      "sabye": 1392,
      "zan": 1393,
      "Ġyagize": 1394,
      "ywe": 1395,
      "Ġudu": 1396,
      "juje": 1397,
      "ota": 1398,
      "kanya": 1399,
      "sobanuro": 1400,
      "Ġkuzamura": 1401,
      "fashi": 1402,
      "konje": 1403,
      "kombe": 1404,
      "shanwa": 1405,
      "van": 1406,
      "bure": 1407,
      "Ġgutera": 1408,
      "Ġagaciro": 1409,
      "kwira": 1410,
      "ĠSpo": 1411,
      "rura": 1412,
      "ĠIc": 1413,
      "ck": 1414,
      "nyu": 1415,
      "Ġhi": 1416,
      "Ġumwa": 1417,
      "ĠPolisi": 1418,
      "shyize": 1419,
      "Ġmyaka": 1420,
      "ĠDr": 1421,
      "bereye": 1422,
      "shami": 1423,
      "Ġibice": 1424,
      "hirwe": 1425,
      "Ġwese": 1426,
      "Ġmpuzamahanga": 1427,
      "shimiye": 1428,
      "Gu": 1429,
      "rera": 1430,
      "tumye": 1431,
      "Ġbirimo": 1432,
      "gende": 1433,
      "Ġyaha": 1434,
      "siyo": 1435,
      "Ġiba": 1436,
      "Ġkwishyu": 1437,
      "Ġikipe": 1438,
      "rts": 1439,
      "tin": 1440,
      "kunze": 1441,
      "huse": 1442,
      "Ġ200": 1443,
      "kirwa": 1444,
      "Ġbihugu": 1445,
      "dirimbo": 1446,
      "biko": 1447,
      "ĠNta": 1448,
      "Ġkuyi": 1449,
      "ĠUbwo": 1450,
      "Ġkura": 1451,
      "bwiriza": 1452,
      "kari": 1453,
      "sirikare": 1454,
      "shingano": 1455,
      "Ġnuburyo": 1456,
      "Ġsa": 1457,
      "pakira": 1458,
      "shusho": 1459,
      "Igihugu": 1460,
      "zera": 1461,
      "Ġhasi": 1462,
      "shyigi": 1463,
      "Ġamashanyarazi": 1464,
      "Ġinzira": 1465,
      "hani": 1466,
      "uza": 1467,
      "Ġgutwara": 1468,
      "Ġmen": 1469,
      "Ġumwana": 1470,
      "ĠÂ": 1471,
      "Ġgukomeza": 1472,
      "shushanya": 1473,
      "Ġguteza": 1474,
      "lle": 1475,
      "mbwe": 1476,
      "herere": 1477,
      "Ġnawe": 1478,
      "Ġimiterere": 1479,
      "mira": 1480,
      "Imana": 1481,
      "guye": 1482,
      "Ġbigatuma": 1483,
      "Ġzitandukanye": 1484,
      "shaho": 1485,
      "liya": 1486,
      "yumba": 1487,
      "hari": 1488,
      "shora": 1489,
      "zere": 1490,
      "Ġbinyu": 1491,
      "Ġbijyanye": 1492,
      "reba": 1493,
      "mm": 1494,
      "Ġmuru": 1495,
      "Ġ.": 1496,
      "Ġuwa": 1497,
      "myenda": 1498,
      "Ġde": 1499,
      "ĠJean": 1500,
      "ĠIbikoresho": 1501,
      "tsa": 1502,
      "Ġikora": 1503,
      "buka": 1504,
      "Ġmyiza": 1505,
      "Ġcye": 1506,
      "shingi": 1507,
      "Ġmenshi": 1508,
      "Ġigihugu": 1509,
      "ongo": 1510,
      "gaban": 1511,
      "Ġrimwe": 1512,
      "saha": 1513,
      "Ġzose": 1514,
      "gambo": 1515,
      "mara": 1516,
      "Ġbamu": 1517,
      "banga": 1518,
      "Ġmbonera": 1519,
      "tani": 1520,
      "Ġ199": 1521,
      "Ġnaho": 1522,
      "tegere": 1523,
      "kurikirana": 1524,
      "abaturage": 1525,
      "Ġikoreshwa": 1526,
      "Ġuza": 1527,
      "Ġmpamvu": 1528,
      "yaga": 1529,
      "umw": 1530,
      "ĠSports": 1531,
      "Ġbakaba": 1532,
      "ib": 1533,
      "ĠHari": 1534,
      "liti": 1535,
      "ramo": 1536,
      "shyin": 1537,
      "ĠYo": 1538,
      "garagaje": 1539,
      "vuzi": 1540,
      "sore": 1541,
      "bikoresho": 1542,
      "yeshuri": 1543,
      "Ġbyan": 1544,
      "rwo": 1545,
      "Ġhaba": 1546,
      "kundo": 1547,
      "Ġbwe": 1548,
      "Ġwawe": 1549,
      "zungu": 1550,
      "Ġ11": 1551,
      "Ġihu": 1552,
      "Ġikoranabuhanga": 1553,
      "Ġkuza": 1554,
      "lasti": 1555,
      "toki": 1556,
      "Ġuta": 1557,
      "Ġpe": 1558,
      "ngabunga": 1559,
      "hande": 1560,
      "fun": 1561,
      "tegetsi": 1562,
      "lu": 1563,
      "shyushye": 1564,
      "...": 1565,
      "Ġkirekire": 1566,
      "Ġuka": 1567,
      "Ġbarimo": 1568,
      "Ġnubwo": 1569,
      "toza": 1570,
      "Ġkibazo": 1571,
      "nd": 1572,
      "Ġakazi": 1573,
      "Ġcyose": 1574,
      "Ġaya": 1575,
      "Ġugu": 1576,
      "ĠTe": 1577,
      "Ġ18": 1578,
      "Ġh": 1579,
      "renze": 1580,
      "anjye": 1581,
      "Ġguhitamo": 1582,
      "Ġbihe": 1583,
      "hamwe": 1584,
      "Ġkugurisha": 1585,
      "buye": 1586,
      "simbu": 1587,
      "vugwa": 1588,
      "ĠAriko": 1589,
      "ĠLi": 1590,
      "yemo": 1591,
      "Ġmeza": 1592,
      "Ġimyi": 1593,
      "Ġgufasha": 1594,
      "Ġbitewe": 1595,
      "Ġinyungu": 1596,
      "minuza": 1597,
      "pera": 1598,
      "Ġ25": 1599,
      "ĠJo": 1600,
      "Ġbimwe": 1601,
      "ĠWe": 1602,
      "rwayi": 1603,
      "Ġmubikorwa": 1604,
      "tanze": 1605,
      "ĠNiba": 1606,
      "tewe": 1607,
      "tandatu": 1608,
      "meze": 1609,
      "ganga": 1610,
      "Ġ100": 1611,
      "tabo": 1612,
      "Ġnda": 1613,
      "taba": 1614,
      "Ġ16": 1615,
      "Ġbyaba": 1616,
      "ranira": 1617,
      "Ġyakorewe": 1618,
      "bicuruzwa": 1619,
      "Ġagira": 1620,
      "ndu": 1621,
      "Ġnone": 1622,
      "Ġan": 1623,
      "roheje": 1624,
      "Ġbakora": 1625,
      "gire": 1626,
      "ĠBo": 1627,
      "Ġdo": 1628,
      "mpi": 1629,
      "Ġgutunganya": 1630,
      "Ġmuntu": 1631,
      "genga": 1632,
      "Ġutu": 1633,
      "ĠSu": 1634,
      "ĠUbushinwa": 1635,
      "shuti": 1636,
      "fuzo": 1637,
      "Ġamavuta": 1638,
      "ĠKwi": 1639,
      "anduku": 1640,
      "ty": 1641,
      "Ġbahu": 1642,
      "haye": 1643,
      "nganzira": 1644,
      "Ġ13": 1645,
      "Ġinganda": 1646,
      "Ġgukura": 1647,
      "bw": 1648,
      "10": 1649,
      "Ġgucu": 1650,
      "Ġ14": 1651,
      "tor": 1652,
      "Iki": 1653,
      "Ġbana": 1654,
      "banda": 1655,
      "kisha": 1656,
      "retse": 1657,
      "vura": 1658,
      "Ġkubungabunga": 1659,
      "lika": 1660,
      "ĠRayon": 1661,
      "Ġizi": 1662,
      "pfa": 1663,
      "ID": 1664,
      "umutekano": 1665,
      "sanduku": 1666,
      "tozo": 1667,
      "Ġubwa": 1668,
      "Ġyama": 1669,
      "ĠDa": 1670,
      "Ġbiro": 1671,
      "rasira": 1672,
      "fuka": 1673,
      "Ġkwirinda": 1674,
      "Ġbikaba": 1675,
      "Ġizina": 1676,
      "il": 1677,
      "IN": 1678,
      "ul": 1679,
      "yemeza": 1680,
      "terwa": 1681,
      "bwiza": 1682,
      "ĠDe": 1683,
      "ĠAl": 1684,
      "201": 1685,
      "Ubushinwa": 1686,
      "taramo": 1687,
      "hagara": 1688,
      "Ġmwiza": 1689,
      "Ġubwoko": 1690,
      "ransa": 1691,
      "Ġbyari": 1692,
      "Ġvu": 1693,
      "ĠHamwe": 1694,
      "Ġhose": 1695,
      "nshi": 1696,
      "shyirwa": 1697,
      "rushanwa": 1698,
      "Ġibiri": 1699,
      "rayi": 1700,
      "horaho": 1701,
      "Ġinyuma": 1702,
      "Ġmukuru": 1703,
      "Ġze": 1704,
      "bereho": 1705,
      "Ġabakozi": 1706,
      "Ġbamaze": 1707,
      "Ġbagiye": 1708,
      "Ġbantu": 1709,
      "Ġal": 1710,
      "hango": 1711,
      "zana": 1712,
      "torero": 1713,
      "Ġiminsi": 1714,
      "aho": 1715,
      "Ġrugo": 1716,
      "Ġimyenda": 1717,
      "ibyo": 1718,
      "Ġguhanga": 1719,
      "shoboye": 1720,
      "Ġkugu": 1721,
      "hamya": 1722,
      "riya": 1723,
      "ire": 1724,
      "Ġayo": 1725,
      "Ġryu": 1726,
      "hangana": 1727,
      "ĠUganda": 1728,
      "Ġyabi": 1729,
      "rambe": 1730,
      "jambo": 1731,
      "Ġamu": 1732,
      "kwiriye": 1733,
      "Ġtuza": 1734,
      "Ġatari": 1735,
      "kurikira": 1736,
      "jwi": 1737,
      "Ġvuba": 1738,
      "funga": 1739,
      "ED": 1740,
      "Ġnayo": 1741,
      "ĠByo": 1742,
      "Ġibihumbi": 1743,
      "Ġbabo": 1744,
      "yijwe": 1745,
      "Ġinda": 1746,
      "bano": 1747,
      "senge": 1748,
      "kwirakwi": 1749,
      "foto": 1750,
      "Ġ*": 1751,
      ".\"": 1752,
      "Ha": 1753,
      "rasirazuba": 1754,
      "Ġamahirwe": 1755,
      "ang": 1756,
      "mbaga": 1757,
      "Ġbinyuze": 1758,
      "injira": 1759,
      "Ġbikoresho": 1760,
      "Ġco": 1761,
      "hinda": 1762,
      "isi": 1763,
      "nani": 1764,
      "ĠKuri": 1765,
      "Ġibisubizo": 1766,
      "Ġwitwa": 1767,
      "tanye": 1768,
      "paka": 1769,
      "Ġita": 1770,
      "Ġbida": 1771,
      "Ġnganda": 1772,
      "Ġushobora": 1773,
      "Ġnabi": 1774,
      "bije": 1775,
      "ly": 1776,
      "yine": 1777,
      "Ġamaze": 1778,
      "Ġf": 1779,
      "ng": 1780,
      "Uru": 1781,
      "Ġnibikoresho": 1782,
      "nzi": 1783,
      "Ġuga": 1784,
      "kemura": 1785,
      "Ġurwego": 1786,
      "Ġbitanga": 1787,
      "enya": 1788,
      "ĠYesu": 1789,
      "Ġimirimo": 1790,
      "cyuma": 1791,
      "Ġkurinda": 1792,
      "remere": 1793,
      "hariko": 1794,
      "ent": 1795,
      "cyaha": 1796,
      "baza": 1797,
      "Ġguso": 1798,
      "riwe": 1799,
      "Ġitsinda": 1800,
      "pima": 1801,
      "Ġguku": 1802,
      "sobanura": 1803,
      "Ġishobora": 1804,
      "Ġrwose": 1805,
      "wuba": 1806,
      "Ġimodoka": 1807,
      "ĠRo": 1808,
      "tangwa": 1809,
      "Ġguhindura": 1810,
      "Ġtura": 1811,
      "th": 1812,
      "Ġmukino": 1813,
      "Ġbigo": 1814,
      "ĠTo": 1815,
      "zina": 1816,
      "rizwa": 1817,
      "ruguru": 1818,
      "joro": 1819,
      "Ġtwe": 1820,
      "indu": 1821,
      "Ġmoteri": 1822,
      "ĠBuru": 1823,
      "ngereza": 1824,
      "haga": 1825,
      "kuye": 1826,
      "Ġinkunga": 1827,
      "Ġtw": 1828,
      "Ġumuryango": 1829,
      "Ġdufite": 1830,
      "Ġbikomeye": 1831,
      "ĠMinisiteri": 1832,
      "amazi": 1833,
      "Ġmuryango": 1834,
      "byara": 1835,
      "kondo": 1836,
      "byiza": 1837,
      "ĠIbyo": 1838,
      "huta": 1839,
      "zamini": 1840,
      "Ġntibi": 1841,
      "subiza": 1842,
      "ER": 1843,
      "Ġyatangaje": 1844,
      "ble": 1845,
      "gamije": 1846,
      "Ġizo": 1847,
      "noza": 1848,
      "shijwe": 1849,
      "kipe": 1850,
      "Ġra": 1851,
      "Ġimiti": 1852,
      "teza": 1853,
      "mena": 1854,
      "Ġbazi": 1855,
      "biziga": 1856,
      "ĠLa": 1857,
      "Ġele": 1858,
      "teguye": 1859,
      "ĠGicu": 1860,
      "ver": 1861,
      "teko": 1862,
      "zuma": 1863,
      "tsinze": 1864,
      "Ġushinzwe": 1865,
      "Ġ&": 1866,
      "fatwa": 1867,
      "Ġurashobora": 1868,
      "umwi": 1869,
      "ingenzi": 1870,
      "rango": 1871,
      "ubuzima": 1872,
      "Ġ2019": 1873,
      "Ġumuyobozi": 1874,
      "Ġuba": 1875,
      "Ġbuzima": 1876,
      "shimishije": 1877,
      "ubucuruzi": 1878,
      "komoka": 1879,
      "Tu": 1880,
      "boko": 1881,
      "dege": 1882,
      "Ġmwanya": 1883,
      "Ġisa": 1884,
      "yd": 1885,
      "rezo": 1886,
      "\".": 1887,
      "Ġitu": 1888,
      "ĠHo": 1889,
      "vo": 1890,
      "Ġ24": 1891,
      "mure": 1892,
      "komere": 1893,
      "Ġumugore": 1894,
      "Ġbyubu": 1895,
      "Ġbaki": 1896,
      "Ġbyawe": 1897,
      "Ġuruganda": 1898,
      "nal": 1899,
      "yira": 1900,
      "Ġashobora": 1901,
      "jyana": 1902,
      "tangaza": 1903,
      "maza": 1904,
      "rirwa": 1905,
      "Ġmurugo": 1906,
      "Ġkigo": 1907,
      "ĠFa": 1908,
      "Ġnshya": 1909,
      "ster": 1910,
      "era": 1911,
      "tike": 1912,
      "twaro": 1913,
      "zindi": 1914,
      "Ġ2023": 1915,
      "Ġsaa": 1916,
      "tekereza": 1917,
      "Ġkinini": 1918,
      "Ġumuvuduko": 1919,
      "ĠTwi": 1920,
      "Ġ17": 1921,
      "Ġ2020": 1922,
      "Ġ[": 1923,
      "hugurwa": 1924,
      "risto": 1925,
      "Ġnzu": 1926,
      "abana": 1927,
      "Ġvi": 1928,
      "ritse": 1929,
      "sira": 1930,
      "faransa": 1931,
      "Ġkwita": 1932,
      "hoze": 1933,
      "Ġumwaka": 1934,
      "hame": 1935,
      "hagije": 1936,
      "Ġikintu": 1937,
      "fatika": 1938,
      "Ġkwiga": 1939,
      "50": 1940,
      "Ġigice": 1941,
      "uyu": 1942,
      "hera": 1943,
      "ĠQ": 1944,
      "Ġkuma": 1945,
      "ĠAbanyarwanda": 1946,
      "Ġbishya": 1947,
      "yemeje": 1948,
      "ĠIcya": 1949,
      "inganda": 1950,
      "Ġumunsi": 1951,
      "byiri": 1952,
      "dugu": 1953,
      "Ġplasti": 1954,
      "anyi": 1955,
      "lic": 1956,
      "zani": 1957,
      "amashanyarazi": 1958,
      "Ġbwabo": 1959,
      "muka": 1960,
      "AR": 1961,
      "Ġnini": 1962,
      "habwa": 1963,
      "ur": 1964,
      "Ġla": 1965,
      "roni": 1966,
      "Ġ50": 1967,
      "Ġbintu": 1968,
      "dan": 1969,
      "Ġinzu": 1970,
      "Ġudushya": 1971,
      "gizi": 1972,
      "dugudu": 1973,
      "Ġkwezi": 1974,
      "Ġkubika": 1975,
      "kuba": 1976,
      "shinja": 1977,
      "Ġindwara": 1978,
      "somo": 1979,
      "Ġgushaka": 1980,
      "Ġida": 1981,
      "fashwe": 1982,
      "ĠBe": 1983,
      "hura": 1984,
      "yeho": 1985,
      "rinde": 1986,
      "Ġnyamu": 1987,
      "Ġibiro": 1988,
      "meka": 1989,
      "Ġle": 1990,
      "sigaye": 1991,
      "or": 1992,
      "umuryango": 1993,
      "yanga": 1994,
      "yumweru": 1995,
      "mpe": 1996,
      "kuta": 1997,
      "Ġbagomba": 1998,
      "23": 1999,
      "Ġikomeye": 2000,
      "shyaka": 2001,
      "Ġbyabo": 2002,
      "tegerere": 2003,
      "ibikoresho": 2004,
      "Ġgatatu": 2005,
      "Ġkiza": 2006,
      "Ġimpamvu": 2007,
      "Ġguta": 2008,
      "Ġinshuro": 2009,
      "Ġikaba": 2010,
      "shyizwe": 2011,
      "Ġurumuri": 2012,
      "rangiza": 2013,
      "ĠCongo": 2014,
      "ganye": 2015,
      "anuka": 2016,
      "kanda": 2017,
      "ĠTwa": 2018,
      "Ġ2017": 2019,
      "Ġkuzi": 2020,
      "tegura": 2021,
      "ĠPaul": 2022,
      "Ġbyama": 2023,
      "litiki": 2024,
      "umwa": 2025,
      "ziya": 2026,
      "Ġubuyobozi": 2027,
      "Ġkunoza": 2028,
      "tegererezo": 2029,
      "Ġbura": 2030,
      "umva": 2031,
      "Ġgutu": 2032,
      "Ġigishushanyo": 2033,
      "girwa": 2034,
      "yandiko": 2035,
      "rozi": 2036,
      "Ġakamaro": 2037,
      "Ġbisanzwe": 2038,
      "Ġbati": 2039,
      "deri": 2040,
      "Akarere": 2041,
      "byu": 2042,
      "Ġishuri": 2043,
      "Ġkumva": 2044,
      "Ġmujyi": 2045,
      "Ġimpu": 2046,
      "Ġ2024": 2047,
      "gereran": 2048,
      "ame": 2049,
      "ĠIkin": 2050,
      "Ġro": 2051,
      "zuza": 2052,
      "ĠNda": 2053,
      "sohoka": 2054,
      "Ġhano": 2055,
      "ton": 2056,
      "zuro": 2057,
      "tange": 2058,
      "Ġivuga": 2059,
      "Ġgushushanya": 2060,
      "ren": 2061,
      "Ġubucuruzi": 2062,
      "Ġbashobora": 2063,
      "Ġkare": 2064,
      "Bi": 2065,
      "Ġ2022": 2066,
      "ĠIbicuruzwa": 2067,
      "Ġbwinshi": 2068,
      "anditse": 2069,
      "Ġgakondo": 2070,
      "UR": 2071,
      "twaye": 2072,
      "ĠMata": 2073,
      "ĠAPR": 2074,
      "Ġumubare": 2075,
      "Ġmahanga": 2076,
      "shiman": 2077,
      "Ġminsi": 2078,
      "Ġbworoshye": 2079,
      "Ġ:": 2080,
      "taro": 2081,
      "EM": 2082,
      "kanga": 2083,
      "ĠLt": 2084,
      "ĠNyama": 2085,
      "Ġzabo": 2086,
      "Ġguka": 2087,
      "korerwa": 2088,
      "ĠBibi": 2089,
      "Ġgupakira": 2090,
      "Ġ2018": 2091,
      "shika": 2092,
      "baho": 2093,
      "kurura": 2094,
      "Ġkiri": 2095,
      "Ġmyinshi": 2096,
      "feri": 2097,
      "Ġhaza": 2098,
      "Ġibindi": 2099,
      "yari": 2100,
      "ĠNe": 2101,
      "pubu": 2102,
      "Ġinko": 2103,
      "huti": 2104,
      "ĠLED": 2105,
      "ĠBibiliya": 2106,
      "Ġumukino": 2107,
      "Ġabanya": 2108,
      "Ġso": 2109,
      "Ġibyaha": 2110,
      "ganwa": 2111,
      "ganijwe": 2112,
      "Ġifu": 2113,
      "Ġgifite": 2114,
      "ĠDo": 2115,
      "Ġkwan": 2116,
      "huye": 2117,
      "Ġbateri": 2118,
      "ĠMurenge": 2119,
      "Ġnke": 2120,
      "Ġguca": 2121,
      "Ġtele": 2122,
      "ĠBushinwa": 2123,
      "Ġ2021": 2124,
      "rs": 2125,
      "vandi": 2126,
      "gese": 2127,
      "gizwe": 2128,
      "Ġibitekerezo": 2129,
      "sozi": 2130,
      "Ġzirimo": 2131,
      "Ġbwu": 2132,
      "vandimwe": 2133,
      "Ġcyin": 2134,
      "Ġmp": 2135,
      "zamakuru": 2136,
      "Ġebyiri": 2137,
      "ĠWa": 2138,
      "ĠPe": 2139,
      "Ġkuvuga": 2140,
      "Imi": 2141,
      "Ġibiciro": 2142,
      "Ġinta": 2143,
      "gozi": 2144,
      "ĠRepubu": 2145,
      "Ġindirimbo": 2146,
      "yereke": 2147,
      "Ġigisubizo": 2148,
      "Ġg": 2149,
      "Ġum": 2150,
      "rangi": 2151,
      "ĠTa": 2152,
      "Ġumwuka": 2153,
      "Ġnumu": 2154,
      "Ġguse": 2155,
      "banuka": 2156,
      "hiriza": 2157,
      "koreshejwe": 2158,
      "yona": 2159,
      "kunzi": 2160,
      "Ġntiba": 2161,
      "Ġgus": 2162,
      "Ġamategeko": 2163,
      "mvikana": 2164,
      "tsina": 2165,
      "ĠKomi": 2166,
      "Ġruswa": 2167,
      "jije": 2168,
      "nyamabanga": 2169,
      "Ġada": 2170,
      "is": 2171,
      "neka": 2172,
      "Ġbuta": 2173,
      "ramu": 2174,
      "Ġkumi": 2175,
      "Ġkureba": 2176,
      "ir": 2177,
      "ĠSo": 2178,
      "ric": 2179,
      "manota": 2180,
      "Ġyabaye": 2181,
      "Ġuburambe": 2182,
      "hawe": 2183,
      "Ġuburenganzira": 2184,
      "buzima": 2185,
      "shyigikira": 2186,
      "ibihugu": 2187,
      "Ġkun": 2188,
      "Ġbibiri": 2189,
      "saga": 2190,
      "ĠHu": 2191,
      "Ġibimenyetso": 2192,
      "rimu": 2193,
      "mpiyona": 2194,
      "Ġusanga": 2195,
      "Ġva": 2196,
      "tabira": 2197,
      "rezi": 2198,
      "gito": 2199,
      "garamu": 2200,
      "Ġukeneye": 2201,
      "Ġkumwe": 2202,
      "hungu": 2203,
      "tuye": 2204,
      "Ġinshingano": 2205,
      "verin": 2206,
      "tive": 2207,
      "Ġigiciro": 2208,
      "Ġyuzuye": 2209,
      "cyi": 2210,
      "kwirakwiza": 2211,
      "ĠByongeye": 2212,
      "Ġnabo": 2213,
      "Ġgikorwa": 2214,
      "Ġukurikije": 2215,
      "kane": 2216,
      "Ġyombi": 2217,
      "ĠMugihe": 2218,
      "ĠCO": 2219,
      "rogaramu": 2220,
      "verinoma": 2221,
      "inyabiziga": 2222,
      "rebe": 2223,
      "amafaranga": 2224,
      "Ġbaturage": 2225,
      "igihe": 2226,
      "Ġuruhu": 2227,
      "kiriye": 2228,
      "geje": 2229,
      "Ġbagera": 2230,
      "Ġturi": 2231,
      "ĠYi": 2232,
      "Ġbato": 2233,
      "Ġumurongo": 2234,
      "teguwe": 2235,
      "Ġumugabo": 2236,
      "rangiye": 2237,
      "abi": 2238,
      "ĠRepubulika": 2239,
      "ĠHe": 2240,
      "shyamba": 2241,
      "gabane": 2242,
      "Ġbwose": 2243,
      "sta": 2244,
      "ĠUruganda": 2245,
      "Ġake": 2246,
      "reka": 2247,
      "Ġibihe": 2248,
      "ĠImashini": 2249,
      "raso": 2250,
      "Ġnibwo": 2251,
      "Ġibisabwa": 2252,
      "Ġkwerekana": 2253,
      "yongere": 2254,
      "umini": 2255,
      "Ġmwinshi": 2256,
      "ct": 2257,
      "Ġca": 2258,
      "Ġnkuru": 2259,
      "fitanye": 2260,
      "ruhu": 2261,
      "bwuba": 2262,
      "ĠIgishushanyo": 2263,
      "amategeko": 2264,
      "ruru": 2265,
      "bre": 2266,
      "Ġyimi": 2267,
      "Ġubumenyi": 2268,
      "Ġyerekana": 2269,
      "murika": 2270,
      "ikoranabuhanga": 2271,
      "yamakuru": 2272,
      "Ġubutumwa": 2273,
      "mbitse": 2274,
      "Ġkwambara": 2275,
      "Ġnkuko": 2276,
      "shakisha": 2277,
      "umuntu": 2278,
      "Ġisanzwe": 2279,
      "Ġibiryo": 2280,
      "ĠMbere": 2281,
      "pite": 2282,
      "Ġbitu": 2283,
      "yanda": 2284,
      "Ġcyumweru": 2285,
      "nyine": 2286,
      "Ġurugero": 2287,
      "AF": 2288,
      "bwubatsi": 2289,
      "rangira": 2290,
      "tanzwe": 2291,
      "per": 2292,
      "Ġbagenzi": 2293,
      "lin": 2294,
      "Ġyabwiye": 2295,
      "satsi": 2296,
      "shoramari": 2297,
      "ĠKenya": 2298,
      "ĠThe": 2299,
      "12": 2300,
      "baba": 2301,
      "Ġkiganiro": 2302,
      "Ġkuramba": 2303,
      "che": 2304,
      "Ġako": 2305,
      "Ġzikomeye": 2306,
      "Ġmbi": 2307,
      "Ġli": 2308,
      "Ġicu": 2309,
      "zamuka": 2310,
      "zengu": 2311,
      "byuma": 2312,
      "fungura": 2313,
      "Ġbyujuje": 2314,
      "kaza": 2315,
      "basha": 2316,
      "reme": 2317,
      "Ġwabo": 2318,
      "Ġleta": 2319,
      "byin": 2320,
      "Ġkugenda": 2321,
      "ĠPC": 2322,
      "ĠTi": 2323,
      "am": 2324,
      "icyo": 2325,
      "Ġkohereza": 2326,
      "yoboye": 2327,
      "Ġbyerekana": 2328,
      "ĠIcyo": 2329,
      "Ġindi": 2330,
      "ngura": 2331,
      "Ġisuku": 2332,
      "Ġamasezerano": 2333,
      "Ġkwishyura": 2334,
      "Ġbyihuse": 2335,
      "Ġguhangana": 2336,
      "subira": 2337,
      "Ġintego": 2338,
      "Ġurubyiruko": 2339,
      "injiza": 2340,
      "rusi": 2341,
      "giranye": 2342,
      "hano": 2343,
      "vid": 2344,
      "Ġntu": 2345,
      "Ġkan": 2346,
      "Ġbwoko": 2347,
      "Ġibyiza": 2348,
      "Ġbigomba": 2349,
      "kera": 2350,
      "ĠIsi": 2351,
      "vugizi": 2352,
      "ĠTan": 2353,
      "ste": 2354,
      "AC": 2355,
      "Ġyakoze": 2356,
      "kamaro": 2357,
      "pfuye": 2358,
      "Ġumuriro": 2359,
      "ziki": 2360,
      "Ġbada": 2361,
      "iyi": 2362,
      "ĠLtd": 2363,
      "Ġingamba": 2364,
      "Ġsha": 2365,
      "Ġabayobozi": 2366,
      "Ġubwiza": 2367,
      "Ġmake": 2368,
      "garagaye": 2369,
      "Ġbikoreshwa": 2370,
      "anone": 2371,
      "Ġbukomeye": 2372,
      "Ġkugura": 2373,
      "gabanya": 2374,
      "ĠX": 2375,
      "ĠRwa": 2376,
      "ubwi": 2377,
      "Ġ21": 2378,
      "Ġbice": 2379,
      "singa": 2380,
      "hindagu": 2381,
      "Ġikirere": 2382,
      "Ġndi": 2383,
      "girika": 2384,
      "Ġyitwa": 2385,
      "handi": 2386,
      "ĠSha": 2387,
      "Ġyagiye": 2388,
      "buze": 2389,
      "uburyo": 2390,
      "Ġnzego": 2391,
      "Ġruhande": 2392,
      "ĠAf": 2393,
      "Ġmurenge": 2394,
      "Ġyamu": 2395,
      "Ġimiyoboro": 2396,
      "fana": 2397,
      "ĠMusanze": 2398,
      "Ġaki": 2399,
      "yanya": 2400,
      "Ġbyingenzi": 2401,
      "gambi": 2402,
      "Ġyatangiye": 2403,
      "Ġkira": 2404,
      "Ġubundi": 2405,
      "30": 2406,
      "ĠBya": 2407,
      "andika": 2408,
      "GI": 2409,
      "umwihariko": 2410,
      "Ġitandukanye": 2411,
      "ĠZi": 2412,
      "fone": 2413,
      "ĠKana": 2414,
      "Ġbwawe": 2415,
      "tarama": 2416,
      "Ġbyihariye": 2417,
      "Ġ1994": 2418,
      "Ġ22": 2419,
      "Ġibigo": 2420,
      "Ġkubaho": 2421,
      "Ġgukorera": 2422,
      "ĠPro": 2423,
      "metero": 2424,
      "Ġrye": 2425,
      "Ġsiporo": 2426,
      "twari": 2427,
      "ĠUku": 2428,
      "Ġura": 2429,
      "Ġiby": 2430,
      "Ġrunini": 2431,
      "Ġbabiri": 2432,
      "Ġzin": 2433,
      "Ġabagore": 2434,
      "Ġazi": 2435,
      "imari": 2436,
      "Ġwumu": 2437,
      "for": 2438,
      "Ġbajya": 2439,
      "batswe": 2440,
      "Ġkumurongo": 2441,
      "ĠÂ°": 2442,
      "ria": 2443,
      "Ġkirere": 2444,
      "rine": 2445,
      "Ġruna": 2446,
      "Ġyahise": 2447,
      "Ġnatwe": 2448,
      "Ġushaka": 2449,
      "yobya": 2450,
      "ĠBurundi": 2451,
      "Ġyaje": 2452,
      "tic": 2453,
      "abanya": 2454,
      "Ġimaze": 2455,
      "rebure": 2456,
      "abo": 2457,
      "Ġto": 2458,
      "Ġguhinduka": 2459,
      "zimbere": 2460,
      "âĢĭ": 2461,
      "Ġgutuma": 2462,
      "Ġirimo": 2463,
      "Ġnabyo": 2464,
      "gne": 2465,
      "ĠKuva": 2466,
      "Ġmumu": 2467,
      "Ġ40": 2468,
      "hiro": 2469,
      "yiri": 2470,
      "Ġbitaro": 2471,
      "ĠCha": 2472,
      "bavu": 2473,
      "tegereje": 2474,
      "sibye": 2475,
      "Ġgukina": 2476,
      "roko": 2477,
      "Ġbashaka": 2478,
      "tabiriye": 2479,
      "garika": 2480,
      "herero": 2481,
      "yumvi": 2482,
      "rurwe": 2483,
      "Ġubufatanye": 2484,
      "rie": 2485,
      "Ġugomba": 2486,
      "Ġkwemeza": 2487,
      "kosa": 2488,
      "bon": 2489,
      "Ġbakeneye": 2490,
      "Ġkuyobora": 2491,
      "kanisha": 2492,
      "fatanyabikorwa": 2493,
      "les": 2494,
      "Ġ2016": 2495,
      "Ġzifite": 2496,
      "rus": 2497,
      "myi": 2498,
      "shyirahamwe": 2499,
      "rari": 2500,
      "Ġburu": 2501,
      "Ġibyifuzo": 2502,
      "jyepfo": 2503,
      "zin": 2504,
      "induka": 2505,
      "ibanze": 2506,
      "dira": 2507,
      "Ġv": 2508,
      "Ġimikino": 2509,
      "Ġmuto": 2510,
      "riraho": 2511,
      "Ġabakinnyi": 2512,
      "Ġkipe": 2513,
      "ĠGicurasi": 2514,
      "BC": 2515,
      "Ma": 2516,
      "hereye": 2517,
      "myaka": 2518,
      "Ġkumenye": 2519,
      "ringani": 2520,
      "Ġrunaka": 2521,
      "Ġd": 2522,
      "DC": 2523,
      "maga": 2524,
      "Ġbibazo": 2525,
      "Ġagomba": 2526,
      "teganya": 2527,
      "Ġagiye": 2528,
      "ĠVi": 2529,
      "Ġbigira": 2530,
      "mbaye": 2531,
      "Ġbake": 2532,
      "Ya": 2533,
      "danga": 2534,
      "Ġgusaba": 2535,
      "Ġmetero": 2536,
      "agaciro": 2537,
      "Ġumwuga": 2538,
      "ĠNyakanga": 2539,
      "Ġamahoro": 2540,
      "Ġiryo": 2541,
      "Ġkuta": 2542,
      "ĠWerurwe": 2543,
      "Ġababyeyi": 2544,
      "ĠIgihe": 2545,
      "kurikiran": 2546,
      "mbaro": 2547,
      "jyaruguru": 2548,
      "zunguruka": 2549,
      "ĠNubwo": 2550,
      "ment": 2551,
      "herezwa": 2552,
      "Ġtuba": 2553,
      "Ġgishobora": 2554,
      "banje": 2555,
      "ranije": 2556,
      "kingi": 2557,
      "hanganira": 2558,
      "Ġyihariye": 2559,
      "Ġimba": 2560,
      "rangwa": 2561,
      "ĠNyaga": 2562,
      "ĠJa": 2563,
      "Ġkurya": 2564,
      "Ġijambo": 2565,
      "Ġicyaha": 2566,
      "Ġundi": 2567,
      "Ġyayo": 2568,
      "umwaka": 2569,
      "11": 2570,
      "Ġishize": 2571,
      "Ġitariki": 2572,
      "buto": 2573,
      "dana": 2574,
      "Ġof": 2575,
      "Ġukoresheje": 2576,
      "Ġ23": 2577,
      "shyan": 2578,
      "ngeyeho": 2579,
      "akarere": 2580,
      "VID": 2581,
      "cro": 2582,
      "yubako": 2583,
      "Ġinzo": 2584,
      "us": 2585,
      "ĠUwi": 2586,
      "ĠKamena": 2587,
      "Ġmutwe": 2588,
      "Ġgice": 2589,
      "mbura": 2590,
      "Ġryiza": 2591,
      "Ġakora": 2592,
      "Ġkwakira": 2593,
      "izindi": 2594,
      "sumbuye": 2595,
      "manaho": 2596,
      "iterambere": 2597,
      "Ġyoroshye": 2598,
      "sanzu": 2599,
      "sese": 2600,
      "ĠHi": 2601,
      "Ġfibre": 2602,
      "Ġhyd": 2603,
      "Ġnzira": 2604,
      "CO": 2605,
      "tsindi": 2606,
      "Ġwacu": 2607,
      "rereza": 2608,
      "ĠFi": 2609,
      "soro": 2610,
      "Ġkuvura": 2611,
      "tte": 2612,
      "Ġ60": 2613,
      "gufi": 2614,
      "âĢĶ": 2615,
      "zigama": 2616,
      "mero": 2617,
      "ĠSta": 2618,
      "iyo": 2619,
      "gena": 2620,
      "shake": 2621,
      "ĠKaminuza": 2622,
      "ĠBan": 2623,
      "Ġamateka": 2624,
      "Ġihe": 2625,
      "Ġmba": 2626,
      "daso": 2627,
      "girakamaro": 2628,
      "Ġubi": 2629,
      "Ġabanyeshuri": 2630,
      "rimi": 2631,
      "Ġkintu": 2632,
      "yerekezo": 2633,
      "mwuga": 2634,
      "ser": 2635,
      "komera": 2636,
      "Ġkurushaho": 2637,
      "roji": 2638,
      "zeri": 2639,
      "ong": 2640,
      "shishika": 2641,
      "16": 2642,
      "com": 2643,
      "Ġubushakashatsi": 2644,
      "bayeho": 2645,
      "ĠJu": 2646,
      "Ġgukemura": 2647,
      "Ġgikomeye": 2648,
      "yanja": 2649,
      "shyizweho": 2650,
      "kinoroji": 2651,
      "giro": 2652,
      "Ġana": 2653,
      "Ġkenshi": 2654,
      "muryango": 2655,
      "Ġicyemezo": 2656,
      "Ġnyama": 2657,
      "tri": 2658,
      "koni": 2659,
      "yobyabwenge": 2660,
      "Ġgace": 2661,
      "Ġizindi": 2662,
      "rwamo": 2663,
      "tangiza": 2664,
      "hamye": 2665,
      "Ġfiri": 2666,
      "Ġmwe": 2667,
      "Ġgufunga": 2668,
      "AM": 2669,
      "bangami": 2670,
      "Ġmumi": 2671,
      "ĠAu": 2672,
      "Ġzishobora": 2673,
      "dasobwa": 2674,
      "Ba": 2675,
      "Ġnshuro": 2676,
      "Ġbagize": 2677,
      "curuza": 2678,
      "girana": 2679,
      "Ġyasabye": 2680,
      "Ġbayi": 2681,
      "ĠAvuga": 2682,
      "baka": 2683,
      "Ġmikino": 2684,
      "Ġumubiri": 2685,
      "mewe": 2686,
      "Ġumutwe": 2687,
      "yangombwa": 2688,
      "qu": 2689,
      "Ġkubakiriya": 2690,
      "ĠNgo": 2691,
      "suzu": 2692,
      "fungwa": 2693,
      "yigi": 2694,
      "Ġamatara": 2695,
      "ibicuruzwa": 2696,
      "Ġcyiciro": 2697,
      "Ġbike": 2698,
      "Ġamagambo": 2699,
      "nigi": 2700,
      "sor": 2701,
      "herereye": 2702,
      "Ġbuke": 2703,
      "boza": 2704,
      "Ġdushobora": 2705,
      "ĠFran": 2706,
      "Ġbito": 2707,
      "hinga": 2708,
      "Ġkwica": 2709,
      "Ġushize": 2710,
      "Ġingano": 2711,
      "Ġmashuri": 2712,
      "tumi": 2713,
      "ven": 2714,
      "Ġkugaragara": 2715,
      "mamaza": 2716,
      "zihi": 2717,
      "Ġitatu": 2718,
      "tezimbere": 2719,
      "Ġsu": 2720,
      "ĠKandi": 2721,
      "rushaho": 2722,
      "Ġwose": 2723,
      "Ġgato": 2724,
      "Ġbyumu": 2725,
      "gitoroni": 2726,
      ".,": 2727,
      "ĠRi": 2728,
      "perative": 2729,
      "Ġbwacu": 2730,
      "Ġzacu": 2731,
      "Ġumwi": 2732,
      "tiye": 2733,
      "Ġ28": 2734,
      "Abanyarwanda": 2735,
      "dy": 2736,
      "Ġgukorwa": 2737,
      "gerageza": 2738,
      "Ġejo": 2739,
      "kurikiza": 2740,
      "tere": 2741,
      "Ġmunini": 2742,
      "abagore": 2743,
      "Ġelegitoroni": 2744,
      "Ġbisaba": 2745,
      "Ġamashuri": 2746,
      "Ġgucunga": 2747,
      "Ġmubikoresho": 2748,
      "ĠYu": 2749,
      "AS": 2750,
      "merera": 2751,
      "Ġmugabo": 2752,
      "kenera": 2753,
      "Ġumubano": 2754,
      "Ġkuwa": 2755,
      "Ġkaminuza": 2756,
      "Ġkazi": 2757,
      "Ġhin": 2758,
      "Ġukuri": 2759,
      "Ġmiliyari": 2760,
      "Ġatandukanye": 2761,
      "haranira": 2762,
      "banye": 2763,
      "Ġngingo": 2764,
      "Ġingo": 2765,
      "Ġdore": 2766,
      "Ġgukumira": 2767,
      "zeye": 2768,
      "Ġigomba": 2769,
      "ssi": 2770,
      "Ġibara": 2771,
      "saza": 2772,
      "hingwa": 2773,
      "Ġicyizere": 2774,
      "ukuri": 2775,
      "Ġimpano": 2776,
      "IS": 2777,
      "Ġiya": 2778,
      "Ġbyuzuye": 2779,
      "kwezi": 2780,
      "shyushya": 2781,
      "Ġ26": 2782,
      "gereranije": 2783,
      "ĠUmuyoboro": 2784,
      "shyiraho": 2785,
      "gurira": 2786,
      "Ġumupira": 2787,
      "rangije": 2788,
      "Ġibihugu": 2789,
      "anzuro": 2790,
      "Ġniyo": 2791,
      "Ġkuya": 2792,
      "Ġkurusha": 2793,
      "Ġwama": 2794,
      "ĠCla": 2795,
      "Ġgushiraho": 2796,
      "Ġâ": 2797,
      "Ġbyatumye": 2798,
      "Ġbushya": 2799,
      "Ġbigaragara": 2800,
      "Ġzimwe": 2801,
      "Ġurwo": 2802,
      "Ġguhagarika": 2803,
      "Ġbuhe": 2804,
      "Ġgupima": 2805,
      "Ġcyacu": 2806,
      "umugore": 2807,
      "Ġtekinoroji": 2808,
      "shyiriraho": 2809,
      "zanyo": 2810,
      "wan": 2811,
      "Ġamabwiriza": 2812,
      "jana": 2813,
      "shyantare": 2814,
      "ĠInga": 2815,
      "ĠAgira": 2816,
      "nyarwanda": 2817,
      "Ġkuruta": 2818,
      "yl": 2819,
      "kubiyemo": 2820,
      "Ġnto": 2821,
      "cye": 2822,
      "Ġimyitozo": 2823,
      "Ġgutangira": 2824,
      "HE": 2825,
      "Nta": 2826,
      "Ġibipimo": 2827,
      "sano": 2828,
      "Ġicyuma": 2829,
      "koro": 2830,
      "Ġguhindu": 2831,
      "Ġbwumu": 2832,
      "Ġmuhanda": 2833,
      "gare": 2834,
      "hira": 2835,
      "Ġinzego": 2836,
      "ĠKanama": 2837,
      "Ġkwiyongera": 2838,
      "Ġhirya": 2839,
      "mwanya": 2840,
      "IB": 2841,
      "fashije": 2842,
      "Ġtuka": 2843,
      "Ġmudasobwa": 2844,
      "ĠUni": 2845,
      "lla": 2846,
      "shingwa": 2847,
      "Ġndirimbo": 2848,
      "Ġgusudira": 2849,
      "remereye": 2850,
      "hagarariye": 2851,
      "Ġshampiyona": 2852,
      "Ġguhura": 2853,
      "Ġziri": 2854,
      "Ġmakuru": 2855,
      "ĠIcyi": 2856,
      "Ġamanota": 2857,
      "tabera": 2858,
      "Ġplastike": 2859,
      "Ġubumuga": 2860,
      "Ġatu": 2861,
      "rona": 2862,
      "Ġamahitamo": 2863,
      "kiza": 2864,
      "ĠTanzani": 2865,
      "tandukani": 2866,
      "swe": 2867,
      "Ġnuko": 2868,
      "15": 2869,
      "nyamakuru": 2870,
      "Du": 2871,
      "ĠGashyantare": 2872,
      "Ġbagi": 2873,
      "inyo": 2874,
      "polisi": 2875,
      "âĢľ": 2876,
      "Ġumurimo": 2877,
      "Ġkwibuka": 2878,
      "Ġbyombi": 2879,
      "ĠKomisiyo": 2880,
      "ubuyobozi": 2881,
      "shyirwaho": 2882,
      "Ġkubyara": 2883,
      "Ġ+": 2884,
      "hangayi": 2885,
      "teganyijwe": 2886,
      "perereza": 2887,
      "Ġrufite": 2888,
      "yimana": 2889,
      "ĠMutarama": 2890,
      "ĠMukuru": 2891,
      "amashuri": 2892,
      "tangiriro": 2893,
      "ger": 2894,
      "ber": 2895,
      "konjesha": 2896,
      "Ġarimo": 2897,
      "Ġabari": 2898,
      "%.": 2899,
      "seri": 2900,
      "Ġbidasanzwe": 2901,
      "ngirije": 2902,
      "zerwa": 2903,
      "nt": 2904,
      "yumu": 2905,
      "Ġhino": 2906,
      "Ġpolitiki": 2907,
      "Ġkwisi": 2908,
      "Ġ27": 2909,
      "Ġikigo": 2910,
      "RA": 2911,
      "Epfo": 2912,
      "Ġbibi": 2913,
      "Ġimiryango": 2914,
      "komeze": 2915,
      "Ġalumini": 2916,
      "Ġmashini": 2917,
      "Ġraporo": 2918,
      "dio": 2919,
      "girira": 2920,
      "Ġuhu": 2921,
      "Ġcyawe": 2922,
      "ĠOEM": 2923,
      "Ġkaru": 2924,
      "shyizeho": 2925,
      "Ġkoko": 2926,
      "mpa": 2927,
      "kwiranye": 2928,
      "lice": 2929,
      "Ġamashusho": 2930,
      "gaciro": 2931,
      "guzanyo": 2932,
      "ĠUwa": 2933,
      "ĠCovid": 2934,
      "genzuzi": 2935,
      "Ġporogaramu": 2936,
      "ĠRubavu": 2937,
      "ĠZa": 2938,
      "Ġsosiyete": 2939,
      "Muri": 2940,
      "Ġnyamukuru": 2941,
      "Ġgutandu": 2942,
      "Ġgukurikirana": 2943,
      "ino": 2944,
      "Ġibinyabiziga": 2945,
      "shimangira": 2946,
      "Ġitanu": 2947,
      "Ġnoneho": 2948,
      "Ġurukundo": 2949,
      "Ġbuhoro": 2950,
      "Ġibiti": 2951,
      "garu": 2952,
      "tana": 2953,
      "Ġwaba": 2954,
      "shatu": 2955,
      "uwo": 2956,
      "Ġguhi": 2957,
      "Ġbwubu": 2958,
      "banyi": 2959,
      "ĠPCB": 2960,
      "hure": 2961,
      "rasire": 2962,
      "Ġabe": 2963,
      "ziti": 2964,
      "Ġiso": 2965,
      "gesera": 2966,
      "Ġtubi": 2967,
      "lime": 2968,
      "jyanama": 2969,
      "Ġbwama": 2970,
      "ruwa": 2971,
      "Ġumushinga": 2972,
      "ĠNtara": 2973,
      "Ġyamaze": 2974,
      "ibya": 2975,
      "buza": 2976,
      "Ġ'": 2977,
      "buje": 2978,
      "suku": 2979,
      "ibikorwa": 2980,
      "ĠKubera": 2981,
      "Ġbihu": 2982,
      "gwi": 2983,
      "Ġkera": 2984,
      "Ġgukorana": 2985,
      "Ġakenshi": 2986,
      "rica": 2987,
      "day": 2988,
      "shinjacyaha": 2989,
      "\",": 2990,
      "goroba": 2991,
      "Ġrumwe": 2992,
      "Ġimpapuro": 2993,
      "ĠGuverinoma": 2994,
      "Ġ2015": 2995,
      "Ġpi": 2996,
      "Ġibisobanuro": 2997,
      "kwakira": 2998,
      "tio": 2999,
      "Ġuda": 3000,
      "ĠAmazi": 3001,
      "Ġituma": 3002,
      "son": 3003,
      "Ġguteka": 3004,
      "Umuryango": 3005,
      "ket": 3006,
      "gra": 3007,
      "Ġburundu": 3008,
      "ft": 3009,
      "Ġubwenge": 3010,
      "Ġigikorwa": 3011,
      "Ġzira": 3012,
      "bonetse": 3013,
      "hagaze": 3014,
      "uwa": 3015,
      "Ġumuco": 3016,
      "Ġntara": 3017,
      "Ġrwacu": 3018,
      "Ġyakomeje": 3019,
      "ĠFrw": 3020,
      "fatanyije": 3021,
      "Ġwanjye": 3022,
      "ĠNtabwo": 3023,
      "tali": 3024,
      "anduye": 3025,
      "ssa": 3026,
      "Ġmutima": 3027,
      "umwe": 3028,
      "shyikiri": 3029,
      "Ġitara": 3030,
      "moko": 3031,
      "Ġgutsinda": 3032,
      "gereza": 3033,
      "ĠAn": 3034,
      "Ġcyumu": 3035,
      "jijwe": 3036,
      "Ġcyari": 3037,
      "butso": 3038,
      "ĠWi": 3039,
      "tal": 3040,
      "Ġbatandukanye": 3041,
      "gh": 3042,
      "teroli": 3043,
      "bazi": 3044,
      "ĠGe": 3045,
      "Ġigikombe": 3046,
      "shyingo": 3047,
      "Ġine": 3048,
      "bili": 3049,
      "ĠGusa": 3050,
      "ikipe": 3051,
      "Ġgutegura": 3052,
      "mije": 3053,
      "Ġkoro": 3054,
      "yabu": 3055,
      "ĠCOVID": 3056,
      "ĠNk": 3057,
      "ted": 3058,
      "inzego": 3059,
      ".+": 3060,
      "bora": 3061,
      "kiwe": 3062,
      "zabi": 3063,
      "mani": 3064,
      "mic": 3065,
      "Ġbusanzwe": 3066,
      "ingabo": 3067,
      "dini": 3068,
      "ĠAbantu": 3069,
      "Ġbwayo": 3070,
      "Ġgaze": 3071,
      "Ġidasanzwe": 3072,
      "Ġimibereho": 3073,
      "vuguru": 3074,
      "rau": 3075,
      "shingiro": 3076,
      "gendan": 3077,
      "virus": 3078,
      "ĠMujyi": 3079,
      "Ġingabo": 3080,
      "Ġyoroheje": 3081,
      "Ġkibuga": 3082,
      "bira": 3083,
      "kesha": 3084,
      "ĠAmashanyarazi": 3085,
      "kuramo": 3086,
      "shima": 3087,
      "ĠPi": 3088,
      "hoho": 3089,
      "inga": 3090,
      "kuze": 3091,
      "sura": 3092,
      "Ibikoresho": 3093,
      "rind": 3094,
      "ĠUS": 3095,
      "Ġpu": 3096,
      "Ġkwinjira": 3097,
      "ĠAbi": 3098,
      "Ġahe": 3099,
      "Ġisura": 3100,
      "ĠNti": 3101,
      "izuba": 3102,
      "lt": 3103,
      "shimo": 3104,
      "ĠHan": 3105,
      "Ġinka": 3106,
      "ĠTura": 3107,
      "Ġubw": 3108,
      "Ġgusuzuma": 3109,
      "ĠKuba": 3110,
      "Ġintebe": 3111,
      "vanga": 3112,
      "ĠEm": 3113,
      "Ġziza": 3114,
      "ĠIntebe": 3115,
      "Ġkane": 3116,
      "Ġrukora": 3117,
      "ĠNku": 3118,
      "Ġimishinga": 3119,
      "Ġmafaranga": 3120,
      "ngerazuba": 3121,
      "25": 3122,
      "Ġbwibi": 3123,
      "rwaye": 3124,
      "ĠBuri": 3125,
      "abakozi": 3126,
      ".âĢĻ": 3127,
      "genge": 3128,
      "Ġyagaragaje": 3129,
      "ĠNzeri": 3130,
      "zeza": 3131,
      "Ġisosiyete": 3132,
      "ĠUmwa": 3133,
      "rima": 3134,
      "ranyi": 3135,
      "Ġukora": 3136,
      "rekeza": 3137,
      "murikagurisha": 3138,
      "Ġgusimbu": 3139,
      "kereza": 3140,
      "xi": 3141,
      "Ġidafite": 3142,
      "shimye": 3143,
      "kubita": 3144,
      "ĠUbwoko": 3145,
      "ĠCh": 3146,
      "ĠUmunyamabanga": 3147,
      "inda": 3148,
      "mbuto": 3149,
      "ĠMiss": 3150,
      "hanu": 3151,
      "Ġbitatu": 3152,
      "Ġnabakiriya": 3153,
      "Ġec": 3154,
      "Ġpeteroli": 3155,
      "18": 3156,
      "Ġiti": 3157,
      "kabije": 3158,
      "ronavirus": 3159,
      "ĠNone": 3160,
      "misha": 3161,
      "ĠUkuboza": 3162,
      "Ġkwangirika": 3163,
      "Ġigipimo": 3164,
      "Niba": 3165,
      "ĠIgiciro": 3166,
      "ĠâĢĵ": 3167,
      "Ġigira": 3168,
      "ĠBwo": 3169,
      "Ġbyeme": 3170,
      "shyura": 3171,
      "gega": 3172,
      "ph": 3173,
      "ĠNyan": 3174,
      "gurwa": 3175,
      "Ġgukata": 3176,
      "Ġnyamara": 3177,
      "Ġhazaza": 3178,
      "goye": 3179,
      "Ġbivuze": 3180,
      "Ġisano": 3181,
      "raulic": 3182,
      "Ġmushya": 3183,
      "%,": 3184,
      "mezo": 3185,
      "Ġzombi": 3186,
      "andura": 3187,
      "Ġuzi": 3188,
      "ĠBamwe": 3189,
      "amaguru": 3190,
      "ĠYavuze": 3191,
      "Ġubumwe": 3192,
      "kingo": 3193,
      "ibigo": 3194,
      "EN": 3195,
      "Ġumwanda": 3196,
      "Ġ29": 3197,
      "Ġyahawe": 3198,
      "Ġnyungu": 3199,
      "Ġahanini": 3200,
      "mare": 3201,
      "ar": 3202,
      "hwa": 3203,
      "Ġbahawe": 3204,
      "hara": 3205,
      "Ġurugo": 3206,
      "hindagurika": 3207,
      "Ġgitaramo": 3208,
      "weho": 3209,
      "line": 3210,
      "Ġasaba": 3211,
      "Ġbifasha": 3212,
      "Ġkwishyiriraho": 3213,
      "tter": 3214,
      "uel": 3215,
      "Ġgukwirakwiza": 3216,
      "Ġinshuti": 3217,
      "Ġumuyoboro": 3218,
      "tage": 3219,
      "ĠAkarere": 3220,
      "Ġmuganga": 3221,
      "Ġnibikorwa": 3222,
      "hanitse": 3223,
      "Ġajya": 3224,
      "Ġcyama": 3225,
      "wabo": 3226,
      "teganijwe": 3227,
      "merere": 3228,
      "xy": 3229,
      "inota": 3230,
      "burasirazuba": 3231,
      "tware": 3232,
      "Ġguhabwa": 3233,
      "vamo": 3234,
      "Ġbatanga": 3235,
      "depite": 3236,
      "Ġzari": 3237,
      "ĠKugeza": 3238,
      "Ġmwana": 3239,
      "Ġikindi": 3240,
      "sobanukirwa": 3241,
      "tutu": 3242,
      "kuzi": 3243,
      "hagari": 3244,
      "lve": 3245,
      "vuzwe": 3246,
      "Ġmurwego": 3247,
      "Ġabiri": 3248,
      "lan": 3249,
      "thi": 3250,
      "raribonye": 3251,
      "ĠBira": 3252,
      "wana": 3253,
      "Ġruganda": 3254,
      "Ġkuda": 3255,
      "60": 3256,
      "Ġigikoresho": 3257,
      "Ġpro": 3258,
      "gendera": 3259,
      "ikigo": 3260,
      "Ġrwawe": 3261,
      "Ġen": 3262,
      "Ġbakoresha": 3263,
      "koreye": 3264,
      "Ġbakoze": 3265,
      "cal": 3266,
      "hisemo": 3267,
      "Ġumutima": 3268,
      "res": 3269,
      "ĠUbuyobozi": 3270,
      "yigisho": 3271,
      "Ġubusa": 3272,
      "vugo": 3273,
      "Ġkwihanganira": 3274,
      "burira": 3275,
      "Ġgishinzwe": 3276,
      "Ġabaguzi": 3277,
      "Ġturere": 3278,
      "Ġibiganiro": 3279,
      "Ġibitego": 3280,
      "shira": 3281,
      "Ġurugendo": 3282,
      "13": 3283,
      "Ġsita": 3284,
      "kandi": 3285,
      "Ġnari": 3286,
      "Ġubuhanga": 3287,
      "koriko": 3288,
      "Ġbaturutse": 3289,
      "tako": 3290,
      "kristo": 3291,
      "korikori": 3292,
      "Ġimyanda": 3293,
      "ĠYakomeje": 3294,
      "Ġbarashobora": 3295,
      "lari": 3296,
      "gushyingo": 3297,
      "YA": 3298,
      "twarire": 3299,
      "rugendo": 3300,
      "ranyambaga": 3301,
      "Ġitegeko": 3302,
      "ĠHuye": 3303,
      "ĠMuhanga": 3304,
      "gihugu": 3305,
      "gombaga": 3306,
      "Ġbashya": 3307,
      "ball": 3308,
      "Ġbire": 3309,
      "Ġndende": 3310,
      "ĠUbumwe": 3311,
      "Ġkwishyuza": 3312,
      "ĠIkindi": 3313,
      "Ġntacyo": 3314,
      "tel": 3315,
      "Ġumukobwa": 3316,
      "ganya": 3317,
      "cone": 3318,
      "dufasha": 3319,
      "kangura": 3320,
      "umvi": 3321,
      "Ġmyi": 3322,
      "UK": 3323,
      "Ġkumurika": 3324,
      "zimana": 3325,
      "Ġbabona": 3326,
      "herezo": 3327,
      "kanwa": 3328,
      "cm": 3329,
      "Ġ80": 3330,
      "daga": 3331,
      "genza": 3332,
      "rindwi": 3333,
      "tt": 3334,
      "butsa": 3335,
      "pp": 3336,
      "Ġamaso": 3337,
      "imp": 3338,
      "Ġbigezweho": 3339,
      "gufasha": 3340,
      "24": 3341,
      "Ġbutumwa": 3342,
      "one": 3343,
      "Ġfirime": 3344,
      "US": 3345,
      "fitiye": 3346,
      "14": 3347,
      "ĠPV": 3348,
      "inisitiri": 3349,
      "Ġukomeye": 3350,
      "ĠIcyakora": 3351,
      "ĠBugesera": 3352,
      "Ġgitondo": 3353,
      "Ġpompe": 3354,
      "Ġitera": 3355,
      "Ġgiti": 3356,
      "Ġigitego": 3357,
      "sobanuye": 3358,
      "vutse": 3359,
      "Ġguhera": 3360,
      "Ġyita": 3361,
      "ld": 3362,
      "Ġbyangiza": 3363,
      "ĠAga": 3364,
      "ĠâĢ¢": 3365,
      "Ġserivise": 3366,
      "ĠUwo": 3367,
      "80": 3368,
      "suye": 3369,
      "tangajwe": 3370,
      "turutse": 3371,
      "vuza": 3372,
      "Ġbwite": 3373,
      "Ġihuza": 3374,
      "beho": 3375,
      "Ġtwo": 3376,
      "tambara": 3377,
      "Ġimpanuka": 3378,
      "ĠGo": 3379,
      "Ġbatatu": 3380,
      "ngani": 3381,
      "rokotse": 3382,
      "ĠBen": 3383,
      "yina": 3384,
      "ĠUkwakira": 3385,
      "Ubwo": 3386,
      "manuel": 3387,
      "Ġbidafite": 3388,
      "Ġbikozwe": 3389,
      "Ã¨": 3390,
      "Ġgisirikare": 3391,
      "Ġubufasha": 3392,
      "yubahiro": 3393,
      "Ġgushyiraho": 3394,
      "ĠAmavuta": 3395,
      "Ġuburebure": 3396,
      "Ġumunani": 3397,
      "Ġhakaba": 3398,
      "Ġecran": 3399,
      "mezi": 3400,
      "gendanwa": 3401,
      "Ġbaje": 3402,
      "BA": 3403,
      "Ġnkoranyambaga": 3404,
      "Ġkurengera": 3405,
      "Ġibyago": 3406,
      "sizi": 3407,
      "Ġmugenzi": 3408,
      "dage": 3409,
      "rwana": 3410,
      "ngenge": 3411,
      "kinisho": 3412,
      "Ġtuga": 3413,
      "myo": 3414,
      "Ġbwibicuruzwa": 3415,
      "imbere": 3416,
      "Ġatanga": 3417,
      "ĠIsosiyete": 3418,
      "Ġubwoba": 3419,
      "aka": 3420,
      "yuka": 3421,
      "ĠCon": 3422,
      "Ġibyangombwa": 3423,
      "Ġnibicuruzwa": 3424,
      "Ġmodoka": 3425,
      "Ġbagira": 3426,
      "Ġimbuto": 3427,
      "ĠBurayi": 3428,
      "Ġintambwe": 3429,
      "cika": 3430,
      "shimwe": 3431,
      "Ġmushinga": 3432,
      "ringa": 3433,
      "yumvire": 3434,
      "vuko": 3435,
      "Ġuretse": 3436,
      "ĠBwongereza": 3437,
      "riri": 3438,
      "Ġishami": 3439,
      "garara": 3440,
      "gamizi": 3441,
      "Ġguto": 3442,
      "Ġferi": 3443,
      "banyeshuri": 3444,
      "ĠUburyo": 3445,
      "Ġ500": 3446,
      "guha": 3447,
      "kwaho": 3448,
      "Ġiperereza": 3449,
      "Ġamakipe": 3450,
      "ĠKore": 3451,
      "tanyi": 3452,
      "ĠBwi": 3453,
      "Ġbicuruzwa": 3454,
      "amahanga": 3455,
      "SO": 3456,
      "mbasa": 3457,
      "ĠAka": 3458,
      "Ġinsinga": 3459,
      "Ġrira": 3460,
      "Ġgukuramo": 3461,
      "Ġkwagura": 3462,
      "ĠAr": 3463,
      "abayobozi": 3464,
      "Ġnibyiza": 3465,
      "ĠMuka": 3466,
      "17": 3467,
      "tandukaniro": 3468,
      "mine": 3469,
      "Twa": 3470,
      "Ġukuvuga": 3471,
      "Ġbyara": 3472,
      "ĠEmmanuel": 3473,
      "Ġvalve": 3474,
      "Ġamasomo": 3475,
      "der": 3476,
      "shingwabikorwa": 3477,
      "Ġumutungo": 3478,
      "Ġman": 3479,
      "ĠLo": 3480,
      "Ġgutwi": 3481,
      "kundana": 3482,
      "Ġbufatanye": 3483,
      "tsiko": 3484,
      "ndutse": 3485,
      "Ġinkuru": 3486,
      "Ġashaka": 3487,
      "ĠIri": 3488,
      "ĠIGI": 3489,
      "Ġingingo": 3490,
      "ĠBufaransa": 3491,
      "Ġubukungu": 3492,
      "Ġmagambo": 3493,
      "Ġgusura": 3494,
      "Ġwungirije": 3495,
      "ĠMugu": 3496,
      "Ġbindi": 3497,
      "Ġumaze": 3498,
      "Ġyaho": 3499,
      "tangazamakuru": 3500,
      "Ġamasaha": 3501,
      "canyi": 3502,
      "Ġbin": 3503,
      "kuraho": 3504,
      "icyi": 3505,
      "Ġziba": 3506,
      "lex": 3507,
      "senga": 3508,
      "licone": 3509,
      "bin": 3510,
      "Ġkita": 3511,
      "Ġcyingenzi": 3512,
      ",+": 3513,
      "cent": 3514,
      "seti": 3515,
      "ĠPolice": 3516,
      "nota": 3517,
      "Ġkunye": 3518,
      "Ġtugomba": 3519,
      "Ġubutaka": 3520,
      "Ġbate": 3521,
      "reye": 3522,
      "Na": 3523,
      "menyo": 3524,
      "ĠUgushyingo": 3525,
      "mugayo": 3526,
      "Ġryacu": 3527,
      "ĠâĢĿ": 3528,
      "saku": 3529,
      "Ġukuntu": 3530,
      "up": 3531,
      "Ġntiya": 3532,
      "Ġmuke": 3533,
      "Ġyimodoka": 3534,
      "ubukungu": 3535,
      "Ġkugi": 3536,
      "rali": 3537,
      "ĠAS": 3538,
      "Ġamabara": 3539,
      "ĠUko": 3540,
      "Iyo": 3541,
      "Ġbuba": 3542,
      "fatizo": 3543,
      "ĠSisitemu": 3544,
      "Ġbatuye": 3545,
      "ngeraho": 3546,
      "sitani": 3547,
      "Ġkugaragaza": 3548,
      "shatse": 3549,
      "âĢĻ,": 3550,
      "Ġkuburyo": 3551,
      "ĠFe": 3552,
      "ĠToday": 3553,
      "yangamugayo": 3554,
      "Ġintege": 3555,
      "makuru": 3556,
      "Abi": 3557,
      "koreshere": 3558,
      "Ġbageze": 3559,
      "sse": 3560,
      "ĠSh": 3561,
      "Ġbumwe": 3562,
      "yobowe": 3563,
      "Ġnza": 3564,
      "bikora": 3565,
      "Ġayi": 3566,
      "yuga": 3567,
      "manza": 3568,
      "Ġbatangiye": 3569,
      "ĠUmw": 3570,
      "ĠâĢĭ": 3571,
      "pho": 3572,
      "ĠNyaru": 3573,
      "Ġkashe": 3574,
      "zenguruka": 3575,
      "gutse": 3576,
      "ĠAbanya": 3577,
      "huje": 3578,
      "Ġizaba": 3579,
      "Ġamajwi": 3580,
      "Ġgusiga": 3581,
      "ĠInama": 3582,
      "imikino": 3583,
      "magana": 3584,
      "ĠUmwe": 3585,
      "Iyi": 3586,
      "Ġbyizewe": 3587,
      "ĠTanzania": 3588,
      "pamyabu": 3589,
      "shuhe": 3590,
      "giritse": 3591,
      "Ġzita": 3592,
      "gishwa": 3593,
      "rike": 3594,
      "sco": 3595,
      "ture": 3596,
      "Ġnibyo": 3597,
      "Ġndwara": 3598,
      "ĠKan": 3599,
      "kono": 3600,
      "Ġzikora": 3601,
      "shinge": 3602,
      "lye": 3603,
      "zanye": 3604,
      "funze": 3605,
      "ĠIkipe": 3606,
      "ĠâĢĭâĢĭ": 3607,
      "Ġkwiba": 3608,
      "dolari": 3609,
      "Ġtere": 3610,
      "Ġbakiri": 3611,
      "Ġbivugwa": 3612,
      "tira": 3613,
      "Ġigaragaza": 3614,
      "Ġikozwe": 3615,
      "Ġcyabo": 3616,
      "Ġgufungura": 3617,
      "gombye": 3618,
      "Ġbyemeza": 3619,
      "higo": 3620,
      "sobanutse": 3621,
      "Ġirushanwa": 3622,
      "Ġmibi": 3623,
      "ĠIkigo": 3624,
      "Uyu": 3625,
      "zongera": 3626,
      "Ġhu": 3627,
      "Ġgukomera": 3628,
      "Ġmuba": 3629,
      "Ġimpande": 3630,
      "WA": 3631,
      "Ġabagabo": 3632,
      "ĠEse": 3633,
      "ibiro": 3634,
      "koreshereze": 3635,
      "ES": 3636,
      "hindutse": 3637,
      "kotanyi": 3638,
      "ĠAbo": 3639,
      "mokarasi": 3640,
      "icya": 3641,
      "Ġabakoresha": 3642,
      "mbire": 3643,
      "buryo": 3644,
      "Ġbarenga": 3645,
      "buri": 3646,
      "Ġukwi": 3647,
      "Ġyatanze": 3648,
      "Ġnkibi": 3649,
      "es": 3650,
      "ĠMan": 3651,
      "ĠNyanza": 3652,
      "Ġab": 3653,
      "Ġakomeye": 3654,
      "Ġimbo": 3655,
      "hunga": 3656,
      "Ġnubushobozi": 3657,
      "Ġmpera": 3658,
      "ĠUmuryango": 3659,
      "22": 3660,
      "Ġukaba": 3661,
      "Ġyandi": 3662,
      "Ġmiryango": 3663,
      "Ġrubuga": 3664,
      "pamba": 3665,
      "Ġkwizerwa": 3666,
      "Ġbushobora": 3667,
      "nti": 3668,
      "Ġelegitoroniki": 3669,
      "jura": 3670,
      "ĠFu": 3671,
      "Ġkwigisha": 3672,
      "Ġibishushanyo": 3673,
      "rekeye": 3674,
      "Ġatatu": 3675,
      "dagadu": 3676,
      "Ġuzwi": 3677,
      "ĠNuko": 3678,
      "ĠGen": 3679,
      "shimisha": 3680,
      "raba": 3681,
      "indege": 3682,
      "Ġbayo": 3683,
      "iminsi": 3684,
      "Ġyibi": 3685,
      "tegeka": 3686,
      "tungu": 3687,
      "Ġrifite": 3688,
      "bumbye": 3689,
      "Ġnjye": 3690,
      "Ġkin": 3691,
      "menyekanye": 3692,
      "Ġand": 3693,
      "Ġbitabi": 3694,
      "IM": 3695,
      "NC": 3696,
      "Ġuburemere": 3697,
      "Ġamabuye": 3698,
      "magara": 3699,
      "korani": 3700,
      "roroshye": 3701,
      "muntu": 3702,
      "monyi": 3703,
      "ngerera": 3704,
      "Ġyuko": 3705,
      "amavuko": 3706,
      "DA": 3707,
      "Intebe": 3708,
      "ibibazo": 3709,
      "tsinzi": 3710,
      "Ġkurangiza": 3711,
      "hwe": 3712,
      "kiniki": 3713,
      "umuro": 3714,
      "Ġkutu": 3715,
      "Ġmbuga": 3716,
      "kandara": 3717,
      "rebye": 3718,
      "mbarire": 3719,
      "ĠZu": 3720,
      "imyi": 3721,
      "log": 3722,
      "ĠMuse": 3723,
      "Ġnubushyuhe": 3724,
      "ĠBBC": 3725,
      "Ġibijyanye": 3726,
      "rk": 3727,
      "Ġugereranije": 3728,
      "ĠShe": 3729,
      "Ġzikoreshwa": 3730,
      "Ġgutekereza": 3731,
      "ĠIGIHE": 3732,
      "ĠLu": 3733,
      "ĠUsibye": 3734,
      "Ġagera": 3735,
      "Ġireme": 3736,
      "kerarugendo": 3737,
      "Ġngoro": 3738,
      "Ġbwihariye": 3739,
      "Ġeshatu": 3740,
      "kangurambaga": 3741,
      "zobere": 3742,
      "ĠBanki": 3743,
      "gamijwe": 3744,
      "habu": 3745,
      "reho": 3746,
      "Ġkibi": 3747,
      "Ġcyoroshye": 3748,
      "ON": 3749,
      "Ġmugore": 3750,
      "rondo": 3751,
      "imodoka": 3752,
      "Ġriza": 3753,
      "Ġgishya": 3754,
      "Ġbikwiye": 3755,
      "karita": 3756,
      "Ġbyakozwe": 3757,
      "ĠFPR": 3758,
      "ĠâĢĻ": 3759,
      "Ġukunda": 3760,
      "ikin": 3761,
      "Ġwan": 3762,
      "Ġkiba": 3763,
      "Ġheza": 3764,
      "Ġyizewe": 3765,
      "Ġbanya": 3766,
      "sesengura": 3767,
      "DM": 3768,
      "Ġtwari": 3769,
      "Ġimpinduka": 3770,
      "mbyi": 3771,
      "Ġbiranga": 3772,
      "herejwe": 3773,
      "Ġikoresha": 3774,
      "the": 3775,
      "Ġyakozwe": 3776,
      "Ġabafite": 3777,
      "yuze": 3778,
      "terine": 3779,
      "Ġkubura": 3780,
      "Ġmazi": 3781,
      "gorofa": 3782,
      "hou": 3783,
      "Ġibyemezo": 3784,
      "Ġakomeza": 3785,
      "merewe": 3786,
      "umwana": 3787,
      "Ġusanzwe": 3788,
      "ĠIs": 3789,
      "Ġgufatanya": 3790,
      "Ġamezi": 3791,
      "IT": 3792,
      "Ġirenga": 3793,
      "Ġnibura": 3794,
      "Ġasanzwe": 3795,
      "Ġwirinde": 3796,
      "rewe": 3797,
      "seke": 3798,
      "Ġhydraulic": 3799,
      "sego": 3800,
      "kweto": 3801,
      "kimbi": 3802,
      "ĠNyira": 3803,
      "ĠKwa": 3804,
      "Ġ~": 3805,
      "Ġmuku": 3806,
      "Ġdukora": 3807,
      "Ġanti": 3808,
      "kiro": 3809,
      "cwa": 3810,
      "kurikirane": 3811,
      "renganzira": 3812,
      "Ġkuzigama": 3813,
      "tegereza": 3814,
      "Ġtekiniki": 3815,
      "ganje": 3816,
      "Ġbitabiriye": 3817,
      "Ġrikomeye": 3818,
      "ĠCoronavirus": 3819,
      "fashisha": 3820,
      "Ġamaraso": 3821,
      "mer": 3822,
      "Ġtumenye": 3823,
      "ken": 3824,
      "40": 3825,
      "ĠWaba": 3826,
      "Ġkuzuza": 3827,
      "Ġmubisanzwe": 3828,
      "stin": 3829,
      "ĠIngano": 3830,
      "Ġruta": 3831,
      "ĠNyagatare": 3832,
      "Ġngaruka": 3833,
      "Ġkarubone": 3834,
      "yoborere": 3835,
      "Ġbombi": 3836,
      "Ġigera": 3837,
      "jugu": 3838,
      "Ġitorero": 3839,
      "ĠKayi": 3840,
      "sanya": 3841,
      "ĠIN": 3842,
      "Ġagasanduku": 3843,
      "Ġmasezerano": 3844,
      "kimbirane": 3845,
      "ĠIra": 3846,
      "Ġ70": 3847,
      "kinira": 3848,
      "size": 3849,
      "Ġintoki": 3850,
      "AL": 3851,
      "Ġ#": 3852,
      "ĠFo": 3853,
      "bert": 3854,
      "EG": 3855,
      "Ġutanga": 3856,
      "Ġinyandiko": 3857,
      "PC": 3858,
      "Ġryin": 3859,
      "kunzwe": 3860,
      "rinzi": 3861,
      "rimana": 3862,
      "Ġgatanu": 3863,
      "Ġumuhanda": 3864,
      "jwa": 3865,
      "âĢĿ,": 3866,
      "Ġazaba": 3867,
      "garutse": 3868,
      "tabazi": 3869,
      "Ġbakuru": 3870,
      "Ġbakomeje": 3871,
      "Ġahi": 3872,
      "Ġbiterwa": 3873,
      "bwibyo": 3874,
      "âĢĻ.": 3875,
      "Ġbizaba": 3876,
      "Ġthe": 3877,
      "Ġfor": 3878,
      "umugabo": 3879,
      "Ġbufite": 3880,
      "icyuma": 3881,
      "Ġicyerekezo": 3882,
      "Ġremezo": 3883,
      "zihiza": 3884,
      "shyitsi": 3885,
      "Ġimari": 3886,
      "gora": 3887,
      "ĠImiterere": 3888,
      "Re": 3889,
      "gaze": 3890,
      "Ġ90": 3891,
      "gezwa": 3892,
      "camanza": 3893,
      "Ġrwu": 3894,
      "Ġbitagira": 3895,
      "Ġyingenzi": 3896,
      "lly": 3897,
      "cide": 3898,
      "abakobwa": 3899,
      "Twi": 3900,
      "Ġbuza": 3901,
      "Ġumenye": 3902,
      "ĠGatanu": 3903,
      "mbera": 3904,
      "Ġimbabazi": 3905,
      "liziya": 3906,
      "Ġmugi": 3907,
      "sora": 3908,
      "Ġmateka": 3909,
      "ruhuko": 3910,
      "riweho": 3911,
      "Ġbinini": 3912,
      "Ġrwiza": 3913,
      "Ġgucapa": 3914,
      "Ġyongeye": 3915,
      "Ġabona": 3916,
      "Ġyiki": 3917,
      "Ġgushyigikira": 3918,
      "Ġubunini": 3919,
      "Ġriri": 3920,
      "ĠUrwego": 3921,
      "Ġintera": 3922,
      "Ġbyayo": 3923,
      "foni": 3924,
      "Ġyanjye": 3925,
      "gezi": 3926,
      "ĠAha": 3927,
      "gengo": 3928,
      "ciye": 3929,
      "ibidukikije": 3930,
      "ĠIzi": 3931,
      "gue": 3932,
      "Ġnigiciro": 3933,
      "yeli": 3934,
      "ĠDia": 3935,
      "ĠNohe": 3936,
      "Ġbakwiye": 3937,
      "geraho": 3938,
      "tinya": 3939,
      "Ġbwuzuye": 3940,
      "Ġkubahiriza": 3941,
      "Ġbigoye": 3942,
      "Ġkubikorwa": 3943,
      "Ġahita": 3944,
      "Ġtoni": 3945,
      "Ġbyabaye": 3946,
      "jyambere": 3947,
      "Ubuzima": 3948,
      "Ġumwanzuro": 3949,
      "Hamwe": 3950,
      "vana": 3951,
      "sengero": 3952,
      "Ġ300": 3953,
      "ĠUhoraho": 3954,
      "kurwa": 3955,
      "karaba": 3956,
      "ĠAb": 3957,
      "ranyije": 3958,
      "ĠKristo": 3959,
      "Ġbakunda": 3960,
      "ngane": 3961,
      "genze": 3962,
      "Ġmubice": 3963,
      "shizweho": 3964,
      "Ġmukobwa": 3965,
      "uruhu": 3966,
      "ringanire": 3967,
      "shoferi": 3968,
      "tre": 3969,
      "Ġamahugurwa": 3970,
      "Ġimvura": 3971,
      "rid": 3972,
      "taho": 3973,
      "Ġfilime": 3974,
      "Ġnanone": 3975,
      "Ġbuhebuje": 3976,
      "Ġyabonye": 3977,
      "shiki": 3978,
      "rwi": 3979,
      "funguro": 3980,
      "nyeri": 3981,
      "Ġbutaka": 3982,
      "byaza": 3983,
      "ciri": 3984,
      "IR": 3985,
      "Ġbimeze": 3986,
      "Ġbigize": 3987,
      "haza": 3988,
      "Ġterefone": 3989,
      "shinjwa": 3990,
      "bire": 3991,
      "Ġbimu": 3992,
      "Ġgukuraho": 3993,
      "wandi": 3994,
      "ĠPVC": 3995,
      "net": 3996,
      "ĠRusizi": 3997,
      "Ġbisa": 3998,
      "Ġibirori": 3999,
      "rimba": 4000,
      "cy": 4001,
      "pan": 4002,
      "Ġijoro": 4003,
      "imwe": 4004,
      "Ġbanki": 4005,
      "Ġyumva": 4006,
      "tumanaho": 4007,
      "Ġaramu": 4008,
      "Ġmfite": 4009,
      "tangarije": 4010,
      "pamyabumenyi": 4011,
      "Ġkanya": 4012,
      "Ġyatsinze": 4013,
      "Ġabakobwa": 4014,
      "Ġkunyu": 4015,
      "tunga": 4016,
      "damu": 4017,
      "Ġkwinjiza": 4018,
      "Ġagaragaza": 4019,
      "Ġ35": 4020,
      "gute": 4021,
      "Ġkuruhu": 4022,
      "Ġiko": 4023,
      "Ġarashobora": 4024,
      "geria": 4025,
      "Ġwenyine": 4026,
      "ganisha": 4027,
      "Ġntego": 4028,
      "ababyeyi": 4029,
      "gerwaho": 4030,
      "Ibicuruzwa": 4031,
      "umukino": 4032,
      "Ġkunywa": 4033,
      "ĠKamonyi": 4034,
      "Ġyemeza": 4035,
      "ciriritse": 4036,
      "Ġbazaba": 4037,
      "ĠSte": 4038,
      "Ġmunota": 4039,
      "Ġnshingano": 4040,
      "duha": 4041,
      "Ġurubanza": 4042,
      "Ġzaba": 4043,
      "Ġbiru": 4044,
      "Ġirwanya": 4045,
      "huri": 4046,
      "Ġibiyobyabwenge": 4047,
      "Ġurubuga": 4048,
      "zigo": 4049,
      "Ġikirango": 4050,
      "less": 4051,
      "teganyo": 4052,
      "duka": 4053,
      "garagaro": 4054,
      "ĠKimwe": 4055,
      "ciwe": 4056,
      "Ġbigenda": 4057,
      "Ġgushakisha": 4058,
      "Ġ2014": 4059,
      "urugero": 4060,
      "terineti": 4061,
      "Ġkubo": 4062,
      "ĠAD": 4063,
      "Ġnabwo": 4064,
      "Ġplastiki": 4065,
      "Ġyagiranye": 4066,
      "Ġmaso": 4067,
      "21": 4068,
      "ction": 4069,
      "shingizi": 4070,
      "ĠMini": 4071,
      "Amerika": 4072,
      "Ġmubiri": 4073,
      "OR": 4074,
      "Ġizwi": 4075,
      "Ġgusoma": 4076,
      "nza": 4077,
      "pti": 4078,
      "Ġicyorezo": 4079,
      "gukanye": 4080,
      "Ġbayobozi": 4081,
      "Ġkuvuguru": 4082,
      "ff": 4083,
      "Ġivu": 4084,
      "ĠIrashobora": 4085,
      "bati": 4086,
      "heruka": 4087,
      "Ġinyama": 4088,
      "Ġyageze": 4089,
      "ĠKabiri": 4090,
      "wobo": 4091,
      "Ġuyi": 4092,
      "shiraho": 4093,
      "ĠByi": 4094,
      "Ġuti": 4095,
      "ĠAbaturage": 4096,
      "Ġigifu": 4097,
      "Ġkubana": 4098,
      "cuti": 4099,
      "ĠIgihugu": 4100,
      "jimye": 4101,
      "munsi": 4102,
      "ron": 4103,
      "Ġyuba": 4104,
      "Ġmun": 4105,
      "wulo": 4106,
      "mbuka": 4107,
      "ĠCar": 4108,
      "Ġvol": 4109,
      "ono": 4110,
      "umwuka": 4111,
      "injiye": 4112,
      "yeri": 4113,
      "Ġbizwi": 4114,
      "hutirwa": 4115,
      "Ġizuba": 4116,
      "IK": 4117,
      "Ġhagamijwe": 4118,
      "genzurwa": 4119,
      "Ġbikora": 4120,
      "ĠAC": 4121,
      "Ġumuti": 4122,
      "ĠPawulo": 4123,
      "ubuvuzi": 4124,
      "our": 4125,
      "Ġifasha": 4126,
      "IC": 4127,
      "Ġbaku": 4128,
      "Ġgitabo": 4129,
      "Isi": 4130,
      "Ġguhora": 4131,
      "fate": 4132,
      "Hari": 4133,
      "Ġbahabwa": 4134,
      "Ġkubicuruzwa": 4135,
      "teze": 4136,
      "bwaho": 4137,
      "Ġumukinnyi": 4138,
      "ubuhinzi": 4139,
      "Ġmoto": 4140,
      "Ġmusore": 4141,
      "Ġ...": 4142,
      "ziguye": 4143,
      "garagu": 4144,
      "ĠUrukiko": 4145,
      "Ġhabaho": 4146,
      "Ġicyari": 4147,
      "ĠNew": 4148,
      "ĠNanone": 4149,
      "hantu": 4150,
      "ĠRwi": 4151,
      "urukundo": 4152,
      "utu": 4153,
      "sabwe": 4154,
      "nika": 4155,
      "Ġbifuza": 4156,
      "Ġbuto": 4157,
      "urubyiruko": 4158,
      "lyester": 4159,
      "Ġigenzura": 4160,
      "ĠMar": 4161,
      "ĠAkomeza": 4162,
      "tambaro": 4163,
      "Ġbiroroshye": 4164,
      "Ġruza": 4165,
      "biligi": 4166,
      "tangazo": 4167,
      "Ġigizwe": 4168,
      "Ġnyi": 4169,
      "Ġimirongo": 4170,
      "yumva": 4171,
      "shaje": 4172,
      "Ġintwaro": 4173,
      "Ġmirimo": 4174,
      "umuriro": 4175,
      "Ġnyamuneka": 4176,
      "bonano": 4177,
      "tsinzwe": 4178,
      "iya": 4179,
      "mond": 4180,
      "Ġgukin": 4181,
      "shakanye": 4182,
      "Ġnigihe": 4183,
      "Ġtuzi": 4184,
      "Ġbasanzwe": 4185,
      "Ġguhumeka": 4186,
      "Ġbatara": 4187,
      "Ġabanza": 4188,
      "sani": 4189,
      "lasi": 4190,
      "Ġryari": 4191,
      "Ġkwitabira": 4192,
      "Ġbishoboka": 4193,
      "ngire": 4194,
      "rezida": 4195,
      "Ġubutegetsi": 4196,
      "Ġimpungenge": 4197,
      "Ġti": 4198,
      "guka": 4199,
      "sukura": 4200,
      "Ġmirongo": 4201,
      "ĠAmakuru": 4202,
      "funzwe": 4203,
      "EC": 4204,
      "Ġgusya": 4205,
      "taye": 4206,
      "hagarika": 4207,
      "Ġamahame": 4208,
      "Ġaku": 4209,
      "Ġfa": 4210,
      "mpapuro": 4211,
      "Ġyana": 4212,
      "Ġniterambere": 4213,
      "rengwa": 4214,
      "ĠKugira": 4215,
      "ĠGasa": 4216,
      "ler": 4217,
      "Ġkugerageza": 4218,
      "akazi": 4219,
      "bisanzwe": 4220,
      "Ġabarwayi": 4221,
      "Ġakarere": 4222,
      "yarwanda": 4223,
      "Inga": 4224,
      "tsindiye": 4225,
      "Ġahandi": 4226,
      "fashishijwe": 4227,
      "mazeyo": 4228,
      "rego": 4229,
      "Ġamazu": 4230,
      "Ġumura": 4231,
      "Ġbifatika": 4232,
      "ganiriye": 4233,
      "Ġkwamamaza": 4234,
      "Ġingendo": 4235,
      "Ġwowe": 4236,
      "Ġakana": 4237,
      "ĠIbiro": 4238,
      "menyesha": 4239,
      "zanya": 4240,
      "Ġgutandukana": 4241,
      "Ġukomoka": 4242,
      "Ġicumi": 4243,
      "bwami": 4244,
      "sana": 4245,
      "Ġandi": 4246,
      "takaza": 4247,
      "Ġnyina": 4248,
      "two": 4249,
      "Ġntarengwa": 4250,
      "tional": 4251,
      "gaga": 4252,
      "Ġzitanga": 4253,
      "Ġigitekerezo": 4254,
      "Ġguhana": 4255,
      "Ġzayo": 4256,
      "ĠIcyuma": 4257,
      "fashishwa": 4258,
      "Ġabanyarwanda": 4259,
      "uri": 4260,
      "Ġbyimazeyo": 4261,
      "iri": 4262,
      "hereke": 4263,
      "Ġwayo": 4264,
      "ĠKe": 4265,
      "ĠAfrica": 4266,
      "babi": 4267,
      "Ġhakiri": 4268,
      "caro": 4269,
      "Ġzida": 4270,
      "Ġbwaba": 4271,
      "rikana": 4272,
      "igice": 4273,
      "rohereza": 4274,
      "inyungu": 4275,
      "Ġbwari": 4276,
      "Ġbabonye": 4277,
      "ĠGatatu": 4278,
      "roma": 4279,
      "Ġumugozi": 4280,
      "cupa": 4281,
      "Ġgucukura": 4282,
      "pfunyi": 4283,
      "UN": 4284,
      "ĠJose": 4285,
      "Ġare": 4286,
      "mikorere": 4287,
      "Ġmuhango": 4288,
      "Ġntoya": 4289,
      "jeni": 4290,
      "ramba": 4291,
      "Ġkigero": 4292,
      "ĠIgice": 4293,
      "Ġbushakashatsi": 4294,
      "ngana": 4295,
      "yani": 4296,
      "gereranyije": 4297,
      "rembo": 4298,
      "Ġnyarwanda": 4299,
      "kungugu": 4300,
      "AT": 4301,
      "den": 4302,
      "Ġugasanga": 4303,
      "ura": 4304,
      "tseho": 4305,
      "Ġkuganira": 4306,
      "Ġbiva": 4307,
      "ĠIsa": 4308,
      "Ġikari": 4309,
      "Ġkomi": 4310,
      "Ġububiko": 4311,
      "agateganyo": 4312,
      "Ġumwami": 4313,
      "vuka": 4314,
      "las": 4315,
      "Ġmuhanzi": 4316,
      "Ġbane": 4317,
      "ĠGicumbi": 4318,
      "Amajyaruguru": 4319,
      "ĠÃ": 4320,
      "ĠInter": 4321,
      "ĠUretse": 4322,
      "Ġbyongera": 4323,
      "umubiri": 4324,
      "Ġbatari": 4325,
      "ĠEs": 4326,
      "gaho": 4327,
      "Ġelect": 4328,
      "Ġimibare": 4329,
      "ĠYou": 4330,
      "bukuru": 4331,
      "gurishwa": 4332,
      "WE": 4333,
      "teke": 4334,
      "Ġigaragara": 4335,
      "Ġkwisiga": 4336,
      "Ĺı": 4337,
      "Ġitangazamakuru": 4338,
      "gejeje": 4339,
      "inzu": 4340,
      "ĠTru": 4341,
      "ĠGukoresha": 4342,
      "Ġamasoko": 4343,
      "Ġinguzanyo": 4344,
      "Ġcyaba": 4345,
      "Ġrishinzwe": 4346,
      "ĠKugirango": 4347,
      "Ġl": 4348,
      "tandukanya": 4349,
      "gereranya": 4350,
      "ĠImp": 4351,
      "ĠUmuvugizi": 4352,
      "Ġubuso": 4353,
      "Ġicyiciro": 4354,
      "Amajyepfo": 4355,
      "mbaza": 4356,
      "Ġamakosa": 4357,
      "AB": 4358,
      "vubi": 4359,
      "cumbi": 4360,
      "Ġibishoboka": 4361,
      "Ġkuboneka": 4362,
      "yuho": 4363,
      "Ġbandi": 4364,
      "sangan": 4365,
      "Ġniki": 4366,
      "shakira": 4367,
      "hn": 4368,
      "ĠShi": 4369,
      "ĠGatandatu": 4370,
      "shyigikiye": 4371,
      "fatiwe": 4372,
      "Ġbukabije": 4373,
      "kenerwa": 4374,
      "huriro": 4375,
      "cs": 4376,
      "Ġbikunze": 4377,
      "Ġkubintu": 4378,
      "Ġbirambuye": 4379,
      "Ġgusi": 4380,
      "id": 4381,
      "OM": 4382,
      "Ġumusatsi": 4383,
      "Ġkuha": 4384,
      "dikanya": 4385,
      "kapu": 4386,
      "mwaka": 4387,
      "har": 4388,
      "Ġruri": 4389,
      "suzuma": 4390,
      "menyekanisha": 4391,
      "200": 4392,
      "ĠAmbasa": 4393,
      "ĠMura": 4394,
      "Ġ31": 4395,
      "Ġnibintu": 4396,
      "Ġyanditse": 4397,
      "Ġijana": 4398,
      "ĠAya": 4399,
      "Ġurukiko": 4400,
      "ĠDufite": 4401,
      "vanze": 4402,
      "ĠChe": 4403,
      "Ġkuki": 4404,
      "Ġbuda": 4405,
      "Ġyashize": 4406,
      "biriwe": 4407,
      "siya": 4408,
      "Ġkwandika": 4409,
      "Ġigiye": 4410,
      "imikorere": 4411,
      "ĠDemokarasi": 4412,
      "?âĢĿ": 4413,
      "anduza": 4414,
      "iro": 4415,
      "ĠMun": 4416,
      "Ġmuyobozi": 4417,
      "kemu": 4418,
      "amahoro": 4419,
      "Ġmatora": 4420,
      "tsindwa": 4421,
      "un": 4422,
      "Ġzidasanzwe": 4423,
      "koraga": 4424,
      "ganza": 4425,
      "ĠAho": 4426,
      "Ġyamashanyarazi": 4427,
      "funguye": 4428,
      "Ġkwishimira": 4429,
      "Ġimu": 4430,
      "Ġindege": 4431,
      "rwan": 4432,
      "soza": 4433,
      "ĠBwiza": 4434,
      "hombo": 4435,
      "gane": 4436,
      "sangira": 4437,
      "Ġburambye": 4438,
      "Ġyacyo": 4439,
      "Ġmubihe": 4440,
      "Ġyifuza": 4441,
      "Ġishinzwe": 4442,
      "ley": 4443,
      "Ġmike": 4444,
      "Ġyashyize": 4445,
      "Ġite": 4446,
      "Ġamasa": 4447,
      "Ġkur": 4448,
      "subiramo": 4449,
      "Ġfatizo": 4450,
      "Ġwabaye": 4451,
      "Iburasirazuba": 4452,
      "Ġamazina": 4453,
      "ĠImyenda": 4454,
      "Ġina": 4455,
      "Ikigo": 4456,
      "ĠUbwiza": 4457,
      "Ġyisumbuye": 4458,
      "Ġiru": 4459,
      "OT": 4460,
      "Ġate": 4461,
      "Ġurutonde": 4462,
      "Ġgukonjesha": 4463,
      "kinike": 4464,
      "Ġgusoza": 4465,
      "koranire": 4466,
      "Ġrukomeye": 4467,
      "umukobwa": 4468,
      "lar": 4469,
      "vier": 4470,
      "Ġijuru": 4471,
      "ĠMIN": 4472,
      "Ġifata": 4473,
      "Ġabagenzi": 4474,
      "tinda": 4475,
      "Ġubukana": 4476,
      "ĠAmategeko": 4477,
      "hangano": 4478,
      "ĠClau": 4479,
      "Ġirangi": 4480,
      "shinze": 4481,
      "Ġpolisi": 4482,
      "Ġbwibikoresho": 4483,
      "rizo": 4484,
      "hohoterwa": 4485,
      "umuyobozi": 4486,
      "shyikirwa": 4487,
      "ubutaka": 4488,
      "rusiya": 4489,
      "IP": 4490,
      "Ġbiganiro": 4491,
      "Ġyagenewe": 4492,
      "Ġje": 4493,
      "giriye": 4494,
      "Ġikimenyetso": 4495,
      "Ġbiramba": 4496,
      "ibiri": 4497,
      "Ġbakorera": 4498,
      "nararibonye": 4499,
      "Ġguko": 4500,
      "Ġkugabanuka": 4501,
      "pani": 4502,
      "miterere": 4503,
      "Ġ45": 4504,
      "ant": 4505,
      "Ġgereza": 4506,
      "sheje": 4507,
      "...)": 4508,
      "Ġuhereye": 4509,
      "Ġbigabanya": 4510,
      "vugaga": 4511,
      "Ġumukozi": 4512,
      "Ġrushanwa": 4513,
      "Ġbina": 4514,
      "win": 4515,
      "lat": 4516,
      "Ġyafashe": 4517,
      "ĠKivu": 4518,
      "gwe": 4519,
      "ĠODM": 4520,
      "Ġiku": 4521,
      "Ġgushyushya": 4522,
      "inyabuzima": 4523,
      "gukana": 4524,
      "Ġbare": 4525,
      "tangije": 4526,
      "Ko": 4527,
      "taha": 4528,
      "ĠZunze": 4529,
      "Ġbitari": 4530,
      "Ġtelefoni": 4531,
      "ĠKiliziya": 4532,
      "Ġinzoga": 4533,
      "menyekana": 4534,
      "Ġnibisabwa": 4535,
      "ĠGukora": 4536,
      "byimba": 4537,
      "pine": 4538,
      "sheho": 4539,
      "ĠReba": 4540,
      "Ġumubyeyi": 4541,
      "sohotse": 4542,
      "ubundi": 4543,
      "ĠIb": 4544,
      "dodo": 4545,
      "Ġmurongo": 4546,
      "Ġngororamu": 4547,
      "hanuzi": 4548,
      "ĠKane": 4549,
      "ĠUbushyuhe": 4550,
      "Ġenye": 4551,
      "intebe": 4552,
      "Ġbyaha": 4553,
      "Ġkume": 4554,
      "ahandi": 4555,
      "lub": 4556,
      "kangurira": 4557,
      "Ġnyira": 4558,
      "Ġahari": 4559,
      "Ġbunini": 4560,
      "Ġguhinduranya": 4561,
      "Ġkubyo": 4562,
      "inyuranye": 4563,
      "Ġwara": 4564,
      "Ġmugaragaro": 4565,
      "Ġbucuruzi": 4566,
      "Ġimifuka": 4567,
      "Ġyicyuma": 4568,
      "hondo": 4569,
      "Ġigitutu": 4570,
      "tamo": 4571,
      "cukuzi": 4572,
      "Ġrutonde": 4573,
      "turuka": 4574,
      "gongo": 4575,
      "hinde": 4576,
      "Ġicyarimwe": 4577,
      "Ġcyorezo": 4578,
      "ĠISO": 4579,
      "Ġkwivuza": 4580,
      "citse": 4581,
      "dangagaciro": 4582,
      "gamo": 4583,
      "kundwa": 4584,
      "ĠJohn": 4585,
      "Frw": 4586,
      "Ġiwabo": 4587,
      "Ġryinshi": 4588,
      "ps": 4589,
      "Ġgusana": 4590,
      "Ġimipaka": 4591,
      "ĠChar": 4592,
      "peta": 4593,
      "Abanya": 4594,
      "wer": 4595,
      "Ġaribwo": 4596,
      "Ġrushobora": 4597,
      "Ġigitaramo": 4598,
      "Ġamaboko": 4599,
      "ubutegetsi": 4600,
      "nera": 4601,
      "Ġmicro": 4602,
      "nwa": 4603,
      "Ġbaru": 4604,
      "ingufu": 4605,
      "ĠFD": 4606,
      "sabi": 4607,
      "umupira": 4608,
      "kra": 4609,
      "abagabo": 4610,
      "Ġumunya": 4611,
      "yweho": 4612,
      "ĠRadio": 4613,
      "ikirere": 4614,
      "koko": 4615,
      "Si": 4616,
      "ght": 4617,
      "Ġta": 4618,
      "hejuru": 4619,
      "Ġariyo": 4620,
      "kundi": 4621,
      "rijwe": 4622,
      "korezi": 4623,
      "cunga": 4624,
      "diyo": 4625,
      "Ġrugendo": 4626,
      "Ġhepfo": 4627,
      "ĠItsinda": 4628,
      "Ġbyabakiriya": 4629,
      "ngwa": 4630,
      "Ġbimaze": 4631,
      "Ġinterineti": 4632,
      "imibereho": 4633,
      "hema": 4634,
      "ĠUmwami": 4635,
      "yapani": 4636,
      "verine": 4637,
      "Ġ(...)": 4638,
      "Afurika": 4639,
      "boneye": 4640,
      "Ġbakinnyi": 4641,
      "byaye": 4642,
      "reen": 4643,
      "Ġyimbere": 4644,
      "ceri": 4645,
      "Ġkanseri": 4646,
      "Ġishyaka": 4647,
      "soma": 4648,
      "Ġnyanja": 4649,
      "yana": 4650,
      "Ġmpuzabi": 4651,
      "Ġurunigi": 4652,
      "gereye": 4653,
      "Ġikomeje": 4654,
      "Ġahagaragara": 4655,
      "Ġnyandiko": 4656,
      "ĠNkuru": 4657,
      "ĠÂ«": 4658,
      "Ġimurikagurisha": 4659,
      "Ġabayi": 4660,
      "kanwe": 4661,
      "ard": 4662,
      "Ġibizamini": 4663,
      "Ġinyubako": 4664,
      "Ġchi": 4665,
      "Ġkari": 4666,
      "imiryango": 4667,
      "Ġatara": 4668,
      "ĠNyamara": 4669,
      "Ġgutangaza": 4670,
      "jyanwa": 4671,
      "ishuri": 4672,
      "Ġcon": 4673,
      "Ġhara": 4674,
      "Ġyubushyuhe": 4675,
      "ĠNoheri": 4676,
      "bigenewe": 4677,
      "ziyo": 4678,
      "yika": 4679,
      "shyuza": 4680,
      "Ġmugukora": 4681,
      "Ġgushiman": 4682,
      "bari": 4683,
      "Tura": 4684,
      "Ġyubucuruzi": 4685,
      "Ġkubantu": 4686,
      "Umurenge": 4687,
      "Ġumuziki": 4688,
      "Ġrubyiruko": 4689,
      "rabuzima": 4690,
      "Ġyise": 4691,
      "Ġryama": 4692,
      "turanyi": 4693,
      "minisitiri": 4694,
      "od": 4695,
      "Ġmpuzabitsina": 4696,
      "ibihumbi": 4697,
      "Ġabakora": 4698,
      "ĠVal": 4699,
      "gisi": 4700,
      "gereranywa": 4701,
      "kw": 4702,
      "imbaraga": 4703,
      "amezi": 4704,
      "Ġgukaraba": 4705,
      "ranze": 4706,
      "ĠNshingwabikorwa": 4707,
      "Ġrubanza": 4708,
      "zinduko": 4709,
      "Ġgushyirwa": 4710,
      "Ġkirimo": 4711,
      "at": 4712,
      "Ġaricyo": 4713,
      "ameter": 4714,
      "LR": 4715,
      "Ġbakomeye": 4716,
      "ĠCi": 4717,
      "Ġitandukaniro": 4718,
      "Ġbagore": 4719,
      "rama": 4720,
      "Ġumwenda": 4721,
      "yanzuro": 4722,
      "Ġbumva": 4723,
      "35": 4724,
      "rundi": 4725,
      "kurya": 4726,
      "Ġguterura": 4727,
      "ad": 4728,
      "bizi": 4729,
      "ĠPatri": 4730,
      "hemuka": 4731,
      "Ġbirori": 4732,
      "ĠChi": 4733,
      "Ġ2013": 4734,
      "kishwa": 4735,
      "ĠIbisobanuro": 4736,
      "Ġguhunga": 4737,
      "Ġicyitegererezo": 4738,
      "Ġntangiriro": 4739,
      "Ġumutoza": 4740,
      "Ġhifashishijwe": 4741,
      "ibyi": 4742,
      "ziba": 4743,
      "viziyo": 4744,
      "ĠSena": 4745,
      "ĠMarie": 4746,
      "Ġamata": 4747,
      "tro": 4748,
      "Ġbyiciro": 4749,
      "rekanye": 4750,
      "beshya": 4751,
      "Ntabwo": 4752,
      "Ġbutuma": 4753,
      "01": 4754,
      "remi": 4755,
      "bitekerezo": 4756,
      "Ġvoltage": 4757,
      "ĠRwamagana": 4758,
      "yongereye": 4759,
      "Ġgusohora": 4760,
      "verineri": 4761,
      "Ġbirinda": 4762,
      "RC": 4763,
      "Ġgusubira": 4764,
      "Ġkamere": 4765,
      "Ġinshinge": 4766,
      "mina": 4767,
      "Ġbudasanzwe": 4768,
      "sheke": 4769,
      "kandida": 4770,
      "yungurura": 4771,
      "yura": 4772,
      "ĠKuki": 4773,
      "TM": 4774,
      "sumari": 4775,
      "Ġvirusi": 4776,
      "Ġbishyushye": 4777,
      "gabe": 4778,
      "bani": 4779,
      "Ġmuzi": 4780,
      "Ġnubunini": 4781,
      "Ġnijoro": 4782,
      "Ġnibisubizo": 4783,
      "Ġihamye": 4784,
      "Ġkurenza": 4785,
      "Ġumusanzu": 4786,
      "ĠImbaraga": 4787,
      "Ġmubuzima": 4788,
      "rero": 4789,
      "ĠItara": 4790,
      "Ġgupfa": 4791,
      "Ġkubikoresho": 4792,
      "Ġnubwiza": 4793,
      "ĠAziya": 4794,
      "Ġzika": 4795,
      "Ġsilicone": 4796,
      "ranijwe": 4797,
      "ranyo": 4798,
      "ĠYezu": 4799,
      "Ġigezweho": 4800,
      "Ġ32": 4801,
      "kize": 4802,
      "kirahure": 4803,
      "hinduye": 4804,
      "Ġzubu": 4805,
      "ĠRDC": 4806,
      "ĠInganda": 4807,
      "Ġkumenyekanisha": 4808,
      "Nyuma": 4809,
      "Ġubona": 4810,
      "ĠRIB": 4811,
      "Ġngororamubiri": 4812,
      "Ġbikenewe": 4813,
      "kinnye": 4814,
      "boneza": 4815,
      "rukira": 4816,
      "shanga": 4817,
      "Ġcu": 4818,
      "Ġmugabane": 4819,
      "ubufatanye": 4820,
      "Ġgatandatu": 4821,
      "gal": 4822,
      "uruganda": 4823,
      "noside": 4824,
      "ĠNyarugenge": 4825,
      "ĠIngingo": 4826,
      "teli": 4827,
      "Ġgusubiza": 4828,
      "ĠGra": 4829,
      "Ġikira": 4830,
      "Ġtekinike": 4831,
      "sengi": 4832,
      "cungire": 4833,
      "liyoni": 4834,
      "ringiro": 4835,
      "ĠUrugero": 4836,
      "Ġamatora": 4837,
      "yubaka": 4838,
      "inama": 4839,
      "Ġubuhinzi": 4840,
      "funguzo": 4841,
      "ĠNgoma": 4842,
      "kubahwa": 4843,
      "Ġkaseti": 4844,
      "Ġcyihariye": 4845,
      "mirimo": 4846,
      "ibihe": 4847,
      "Ġurusaku": 4848,
      "Ġbifitanye": 4849,
      "Ġabagize": 4850,
      "ganjemo": 4851,
      "Ġurimo": 4852,
      "GA": 4853,
      "geni": 4854,
      "Ġbihagije": 4855,
      "Ġbyinganda": 4856,
      "Ġbugufi": 4857,
      "Ġnimbaraga": 4858,
      "ĠTuri": 4859,
      "tinze": 4860,
      "ller": 4861,
      "inyobwa": 4862,
      "cha": 4863,
      "anza": 4864,
      "ok": 4865,
      "keye": 4866,
      "Ġzirashobora": 4867,
      "Ġnimu": 4868,
      "lia": 4869,
      "Byo": 4870,
      "Ġnyubako": 4871,
      "Ġsta": 4872,
      "Ġbitegan": 4873,
      "Ġubwe": 4874,
      "et": 4875,
      "Ġbavuze": 4876,
      "ubushyuhe": 4877,
      "hanganye": 4878,
      "tuku": 4879,
      "Ġyahi": 4880,
      "Ġgutangiza": 4881,
      "yunguru": 4882,
      "dani": 4883,
      "Ġamwe": 4884,
      "Ġsitasiyo": 4885,
      "Ġ1000": 4886,
      "my": 4887,
      "ĠBar": 4888,
      "ĠIgikoresho": 4889,
      "guma": 4890,
      "uburezi": 4891,
      "umunsi": 4892,
      "Ġgushimangira": 4893,
      "bese": 4894,
      "undi": 4895,
      "Ġdutanga": 4896,
      "sine": 4897,
      "DF": 4898,
      "Ġniko": 4899,
      "Ġbigaragaza": 4900,
      "ĠIfite": 4901,
      "siri": 4902,
      "Ġishusho": 4903,
      "mbira": 4904,
      "Ġakiri": 4905,
      "Ġyate": 4906,
      "anditswe": 4907,
      "kraine": 4908,
      "tanira": 4909,
      "zitizi": 4910,
      "Ġhariho": 4911,
      "kurikiranwa": 4912,
      "amabuye": 4913,
      "Ġkuzamuka": 4914,
      "mbano": 4915,
      "Ġaluminium": 4916,
      "Ġbamenye": 4917,
      "roha": 4918,
      "Ġintambara": 4919,
      "Ġbasaba": 4920,
      "ĠBru": 4921,
      "Ġlaser": 4922,
      "Ġmezi": 4923,
      "umuco": 4924,
      "kintu": 4925,
      "Ġ2000": 4926,
      "Ġingese": 4927,
      "Ġkose": 4928,
      "ĠVisi": 4929,
      "Ġpulasi": 4930,
      "Ġge": 4931,
      "Ġbigeze": 4932,
      "PA": 4933,
      "indwara": 4934,
      "ĠKongo": 4935,
      "guze": 4936,
      "yongereyeho": 4937,
      "Ġaluminiyumu": 4938,
      "Ġumuturage": 4939,
      "Ġbere": 4940,
      "Ġkikaba": 4941,
      "Ġzawe": 4942,
      "pfunyika": 4943,
      "ĠYaba": 4944,
      "rimbo": 4945,
      "Ġuburyohe": 4946,
      "ctor": 4947,
      "logy": 4948,
      "zura": 4949,
      "Ġibu": 4950,
      "Kwi": 4951,
      "Ġkuzana": 4952,
      "jira": 4953,
      "ZA": 4954,
      "ĠStade": 4955,
      "Ġ2012": 4956,
      "Ġmakipe": 4957,
      "Ġamenyo": 4958,
      "Ġimyumvire": 4959,
      "garagam": 4960,
      "shakaga": 4961,
      "Ġugereranyije": 4962,
      "Ġbagabo": 4963,
      "Ġyihuta": 4964,
      "ĠUmujyi": 4965,
      "rikire": 4966,
      "sirayeli": 4967,
      "Ġtelefone": 4968,
      "sk": 4969,
      "Ġbisabwa": 4970,
      "Ġgukurura": 4971,
      "umwuga": 4972,
      "Ġ@": 4973,
      "Ġyayi": 4974,
      "ĠEx": 4975,
      "ab": 4976,
      "Ġane": 4977,
      "dagaduro": 4978,
      "ĠUV": 4979,
      "Ġmategeko": 4980,
      "Ġuhuze": 4981,
      "bune": 4982,
      "Ġbyikora": 4983,
      "cho": 4984,
      "Ġugiye": 4985,
      "Ġmarushanwa": 4986,
      "Ġmashya": 4987,
      "Ġimihanda": 4988,
      "Ġaside": 4989,
      "Ġwabi": 4990,
      "Ġbawe": 4991,
      "ĠGuhindura": 4992,
      "ĠPasi": 4993,
      "caye": 4994,
      "Ġgukoraho": 4995,
      "ĠMana": 4996,
      "ĠNde": 4997,
      "cukiro": 4998,
      "sengesho": 4999,
      "uku": 5000,
      "hite": 5001,
      "ĠDC": 5002,
      "heli": 5003,
      "Ġyaka": 5004,
      "ĠGro": 5005,
      "Ġsan": 5006,
      "Ġgusobanukirwa": 5007,
      "Ġhabaye": 5008,
      "mubiri": 5009,
      "Ġguhagarara": 5010,
      "UB": 5011,
      "Ġtugiye": 5012,
      "ĠReka": 5013,
      "ĠUkraine": 5014,
      "Ingabo": 5015,
      "jima": 5016,
      "ĠNdayi": 5017,
      "Ġibyishimo": 5018,
      "Ġababa": 5019,
      "Ġrukiko": 5020,
      "guruka": 5021,
      "Ġgushyirwaho": 5022,
      "impu": 5023,
      "soje": 5024,
      "ĠDore": 5025,
      "shingira": 5026,
      "isoko": 5027,
      "Abibumbye": 5028,
      "ĠUmurenge": 5029,
      "Ġubuvuzi": 5030,
      "Ġkwangiza": 5031,
      "Ġishoramari": 5032,
      "Ġabahinzi": 5033,
      "Ġwuzuye": 5034,
      "Ġuki": 5035,
      "Ġhata": 5036,
      "bangamira": 5037,
      "Ġubuhe": 5038,
      "ĠCyumweru": 5039,
      "Ġrwabo": 5040,
      "Ġfo": 5041,
      "ĠGasabo": 5042,
      "Ġzirenga": 5043,
      "ĠImikorere": 5044,
      "Ġbirenga": 5045,
      "Ġibikenewe": 5046,
      "shobore": 5047,
      "shumba": 5048,
      "Ġihame": 5049,
      "Ġmoderi": 5050,
      "Ġuzaba": 5051,
      "Ġsin": 5052,
      "Ġmura": 5053,
      "eu": 5054,
      "Ġbishwe": 5055,
      "zunguruko": 5056,
      "mb": 5057,
      "Ġkugwa": 5058,
      "Ġrishobora": 5059,
      "pimisha": 5060,
      "Ġnubuhanga": 5061,
      "Ġmure": 5062,
      "Ġbaya": 5063,
      "Ġabenshi": 5064,
      "Ġnumva": 5065,
      "Ġcyibi": 5066,
      "ĠIP": 5067,
      "rengerazuba": 5068,
      "ibintu": 5069,
      "Uburyo": 5070,
      "Ġimya": 5071,
      "Ġmasaha": 5072,
      "Ġbine": 5073,
      "sam": 5074,
      "Ġyujuje": 5075,
      "Ġikomeza": 5076,
      "ĠUM": 5077,
      "Ġryose": 5078,
      "Â»": 5079,
      "ĠFDLR": 5080,
      "bangamiye": 5081,
      "ĠLea": 5082,
      "ĠTech": 5083,
      "Ġuwi": 5084,
      "ĠTrump": 5085,
      "tambwe": 5086,
      "hamaga": 5087,
      "inshuti": 5088,
      "Ġbahe": 5089,
      "ĠUrashobora": 5090,
      "Ġguterana": 5091,
      "ĠEric": 5092,
      "ĠNigeria": 5093,
      "Ġbihumbi": 5094,
      "jisho": 5095,
      "gita": 5096,
      "amadolari": 5097,
      "Ġgitanga": 5098,
      "Ġbyamashanyarazi": 5099,
      "Ġbitera": 5100,
      "rwara": 5101,
      "Ġyahaye": 5102,
      "ĠUbushobozi": 5103,
      "cana": 5104,
      "Ġasanga": 5105,
      "neze": 5106,
      "Ġingenzi": 5107,
      "Ġmikorere": 5108,
      "Ġzikoresha": 5109,
      "ĠKiyo": 5110,
      "ring": 5111,
      "ĠIbice": 5112,
      "001": 5113,
      "umusaruro": 5114,
      "yamamare": 5115,
      "nko": 5116,
      "fashwa": 5117,
      "Ġabatutsi": 5118,
      "ĠUmunyamakuru": 5119,
      "Ġnanjye": 5120,
      "gabanuka": 5121,
      "Ġbifata": 5122,
      "Ġbirwanya": 5123,
      "shishikariza": 5124,
      "Ġicyumba": 5125,
      "Ġbagenda": 5126,
      "ĠDiamond": 5127,
      "Ġabafana": 5128,
      "Ġjenoside": 5129,
      "hishe": 5130,
      "Ġreka": 5131,
      "Ġbatangira": 5132,
      "Ġabu": 5133,
      "hariwe": 5134,
      "hagarara": 5135,
      "45": 5136,
      "erre": 5137,
      "Ġperezida": 5138,
      "hang": 5139,
      "ray": 5140,
      "UM": 5141,
      "reza": 5142,
      "dia": 5143,
      "Ġtwese": 5144,
      "ngira": 5145,
      "tiwe": 5146,
      "byukuri": 5147,
      "Ġbuhinzi": 5148,
      "Ġabahanzi": 5149,
      "ĠNigute": 5150,
      "Ġbadu": 5151,
      "Ġitari": 5152,
      "ije": 5153,
      "EPR": 5154,
      "noze": 5155,
      "meye": 5156,
      "kuwe": 5157,
      "rize": 5158,
      "Ġbakunze": 5159,
      "Ġyavu": 5160,
      "kure": 5161,
      "Ġibira": 5162,
      "ise": 5163,
      "Ġbishingiye": 5164,
      "Ġmurimo": 5165,
      "ĠIcyiciro": 5166,
      "Ġamatungo": 5167,
      "ĠKicukiro": 5168,
      "Ġubutabera": 5169,
      "Ġwamu": 5170,
      "phe": 5171,
      "Ġbako": 5172,
      "ĠRuhango": 5173,
      "zara": 5174,
      "Ġhantu": 5175,
      "Ġibiranga": 5176,
      "uma": 5177,
      "Ġkuvugurura": 5178,
      "uba": 5179,
      "ngeri": 5180,
      "Ġryaba": 5181,
      "Ġyanyu": 5182,
      "ĠImodoka": 5183,
      "Ġmagne": 5184,
      "Ġmudugudu": 5185,
      "shahara": 5186,
      "ando": 5187,
      "abanyeshuri": 5188,
      "ĠUmuvuduko": 5189,
      "ĠUnited": 5190,
      "ubushobozi": 5191,
      "moni": 5192,
      "jyaga": 5193,
      "Ġimpumuro": 5194,
      "Ġzama": 5195,
      "shyiramo": 5196,
      "Ġyemeje": 5197,
      "pro": 5198,
      "Ġsiyan": 5199,
      "Ka": 5200,
      "Ġuyobora": 5201,
      "Ġigihembo": 5202,
      "Ġbazajya": 5203,
      "nyangamugayo": 5204,
      "Ġabasirikare": 5205,
      "Ġyadu": 5206,
      "anyarwanda": 5207,
      "Ġnyiri": 5208,
      "Ġyizuba": 5209,
      "Ġubukwe": 5210,
      "Ġaribyo": 5211,
      "sasu": 5212,
      "Ġuvuga": 5213,
      "Ġmwu": 5214,
      "anira": 5215,
      "Ġgutura": 5216,
      "Ġgusimbuza": 5217,
      "piganwa": 5218,
      "ĠGuverineri": 5219,
      "yahu": 5220,
      "Ġmuremure": 5221,
      "Ġnkeya": 5222,
      "ĠJoseph": 5223,
      "gereranyo": 5224,
      "canga": 5225,
      "Ġkoroshya": 5226,
      "meri": 5227,
      "Ġbigera": 5228,
      "Ġbafata": 5229,
      "IDA": 5230,
      "nguka": 5231,
      "by": 5232,
      "Ġubone": 5233,
      "ingaruka": 5234,
      "hutu": 5235,
      "Ġzibi": 5236,
      "Ġigamije": 5237,
      "Ġyatumye": 5238,
      "Ġzahabu": 5239,
      "Ġyatanzwe": 5240,
      "HO": 5241,
      "ĠGutanga": 5242,
      "Ġyabereye": 5243,
      "garama": 5244,
      "Ġkugarura": 5245,
      "bane": 5246,
      "mwo": 5247,
      "cyari": 5248,
      "ĠHotel": 5249,
      "yer": 5250,
      "Ġnigishushanyo": 5251,
      "Ġgishize": 5252,
      "cike": 5253,
      "fashishije": 5254,
      "Ġikorera": 5255,
      "Ġurebe": 5256,
      "Ġyako": 5257,
      "Ibya": 5258,
      "Ġariwe": 5259,
      "Ġ198": 5260,
      "Ġigabanya": 5261,
      "Ġuhagarariye": 5262,
      "urugo": 5263,
      "ĠKubi": 5264,
      "Ġguhe": 5265,
      "ĠInteko": 5266,
      "rangan": 5267,
      "Ġguhinga": 5268,
      "AFA": 5269,
      "ĠKiyovu": 5270,
      "Ġubuda": 5271,
      "Ġpoly": 5272,
      "Ġakaza": 5273,
      "ĠBwana": 5274,
      "ukwezi": 5275,
      "ngano": 5276,
      "Umuyobozi": 5277,
      "Ġbugezweho": 5278,
      "Ġbagaragaje": 5279,
      "Ġiminota": 5280,
      "Ġ150": 5281,
      "Ġiy": 5282,
      "Ġguterwa": 5283,
      "mukira": 5284,
      "twite": 5285,
      "bwoba": 5286,
      "umutima": 5287,
      "mon": 5288,
      "Ġyumuriro": 5289,
      "kurikiranyweho": 5290,
      "piro": 5291,
      "Ġrwari": 5292,
      "Ġyata": 5293,
      "qua": 5294,
      "mutima": 5295,
      "ĠPadiri": 5296,
      "Ġbahanzi": 5297,
      "Ariko": 5298,
      "ddy": 5299,
      "Ġbakozi": 5300,
      "urukiko": 5301,
      "Ġgakomeye": 5302,
      "tondera": 5303,
      "Rwanda": 5304,
      "kamyo": 5305,
      "giwe": 5306,
      "Ġrundi": 5307,
      "Ġbanyeshuri": 5308,
      "yemezamirimo": 5309,
      "Ġgufatwa": 5310,
      "ĠClaude": 5311,
      "bonaga": 5312,
      "Ġitangazo": 5313,
      "Ġiteka": 5314,
      "gram": 5315,
      "Ġyindi": 5316,
      "sukuye": 5317,
      "Ġbukoreshwa": 5318,
      "Ġyashimiye": 5319,
      "Ġmubucuruzi": 5320,
      "Ġumuyaga": 5321,
      "ĠMpu": 5322,
      "genzacyaha": 5323,
      "Ġbene": 5324,
      "Ġahitwa": 5325,
      "Ġnacyo": 5326,
      "Ġbakana": 5327,
      "Ġubushake": 5328,
      "Ġbuhanitse": 5329,
      "bwire": 5330,
      "sagara": 5331,
      "cyumba": 5332,
      "IF": 5333,
      "loni": 5334,
      "SS": 5335,
      "ĠEV": 5336,
      "Pa": 5337,
      "ĠCyan": 5338,
      "Ġtuta": 5339,
      "26": 5340,
      "toire": 5341,
      "Ġbutanga": 5342,
      "rans": 5343,
      "Ġzuba": 5344,
      "Ġbirenze": 5345,
      "ĠIbyuma": 5346,
      "Ġ400": 5347,
      "rusha": 5348,
      "Ġyashyizwe": 5349,
      "inyuma": 5350,
      "amateka": 5351,
      "yamamaza": 5352,
      "Ġcyerekana": 5353,
      "Im": 5354,
      "Ġkuwu": 5355,
      "ĠOli": 5356,
      "Ġntibya": 5357,
      "ĠVin": 5358,
      "ĠKurwanya": 5359,
      "ĠTV": 5360,
      "Ġabavandimwe": 5361,
      "rongi": 5362,
      "ĠNdi": 5363,
      "Ġbyoroheje": 5364,
      "ĠMiliyoni": 5365,
      "Ġryumu": 5366,
      "Ġisaha": 5367,
      "Ġhashize": 5368,
      "ĠAmatara": 5369,
      "gina": 5370,
      "senyi": 5371,
      "tangijwe": 5372,
      "Ġute": 5373,
      "MS": 5374,
      "Ġibihano": 5375,
      "Ġzinyuranye": 5376,
      "hindagurikire": 5377,
      "Ġutuye": 5378,
      "Ġukwezi": 5379,
      "Ġkurwego": 5380,
      "Ġmugoroba": 5381,
      "gezeho": 5382,
      "ney": 5383,
      "ĠIbara": 5384,
      "tra": 5385,
      "ruta": 5386,
      "ĠBurera": 5387,
      "ubushakashatsi": 5388,
      "gaba": 5389,
      "sansi": 5390,
      "Ġwenda": 5391,
      "tangire": 5392,
      "Ġumuhanzi": 5393,
      "Ġruhu": 5394,
      "siraheli": 5395,
      "ĠNyakubahwa": 5396,
      "Ġkwizihiza": 5397,
      "rengeje": 5398,
      "Ġnizindi": 5399,
      "mbika": 5400,
      "Ġgukusanya": 5401,
      "Ġar": 5402,
      "Ġguverinoma": 5403,
      "Ġyiyemeje": 5404,
      "28": 5405,
      "guke": 5406,
      "Ġbagaragaza": 5407,
      "ĠKaba": 5408,
      "lisa": 5409,
      "kiriwe": 5410,
      "Ġishingiye": 5411,
      "ltra": 5412,
      "guwe": 5413,
      "zhou": 5414,
      "Ġbikurikira": 5415,
      "hangayiki": 5416,
      "Ġimibiri": 5417,
      "Ġbwihuse": 5418,
      "sen": 5419,
      "beri": 5420,
      "Ġmubushinwa": 5421,
      "ubwoko": 5422,
      "imbo": 5423,
      "ĠMusa": 5424,
      "die": 5425,
      "imiti": 5426,
      "Ġbahise": 5427,
      "terani": 5428,
      "Ġkwizera": 5429,
      "ĠPapa": 5430,
      "ĠKin": 5431,
      "rwaga": 5432,
      "Ġyabu": 5433,
      "ĠCE": 5434,
      "terahamwe": 5435,
      "zure": 5436,
      "ĠIkibazo": 5437,
      "ĠIjambo": 5438,
      "Ġtubona": 5439,
      "shema": 5440,
      "Ġ$": 5441,
      "abakinnyi": 5442,
      "Ġururimi": 5443,
      "Ġ197": 5444,
      "Ġch": 5445,
      "Ġashyushye": 5446,
      "byingenzi": 5447,
      "ejo": 5448,
      "Ġgufungwa": 5449,
      "Ġ2010": 5450,
      "mbaho": 5451,
      "Ġbuvuga": 5452,
      "Ġumukiriya": 5453,
      "Ġyigi": 5454,
      "Ġbanjye": 5455,
      "ĠImyi": 5456,
      "Ġukabije": 5457,
      "Ġguhita": 5458,
      "Ġbanyu": 5459,
      "Ġbivuga": 5460,
      "Mugihe": 5461,
      "Ġyinganda": 5462,
      "ĠTwitter": 5463,
      "Ġamakimbirane": 5464,
      "ĠBer": 5465,
      "Ġrishya": 5466,
      "situ": 5467,
      "Ġkubyi": 5468,
      "ĠMisiri": 5469,
      "sket": 5470,
      "Ġnubuzima": 5471,
      "Ĥ¬": 5472,
      "ĠUmuntu": 5473,
      "Ġrukundo": 5474,
      "Ġgusin": 5475,
      "Ġzigera": 5476,
      "Ġkubaha": 5477,
      "gororero": 5478,
      "tch": 5479,
      "Ġimitwe": 5480,
      "Ġnderabuzima": 5481,
      "Ġbavuye": 5482,
      "ĠâĹı": 5483,
      "Ġnazo": 5484,
      "02": 5485,
      "ET": 5486,
      "Ġbutegetsi": 5487,
      "Ġnzi": 5488,
      "ĠIbya": 5489,
      "tekerere": 5490,
      "Soma": 5491,
      "ngiye": 5492,
      "Ġavuye": 5493,
      "Ġbashinzwe": 5494,
      "twandi": 5495,
      "muna": 5496,
      "EK": 5497,
      "Ġninganda": 5498,
      "ĠMukura": 5499,
      "ens": 5500,
      "shoboraga": 5501,
      "ĠHabya": 5502,
      "Ġziga": 5503,
      "ĠTariki": 5504,
      "Ġire": 5505,
      "Ġkindi": 5506,
      "Ġcyubu": 5507,
      "komeretsa": 5508,
      "Ġhakoreshejwe": 5509,
      "ĠCya": 5510,
      "hindure": 5511,
      "Ġguharanira": 5512,
      "hai": 5513,
      "Ġzisanzwe": 5514,
      "Ġigenda": 5515,
      "Ġbabu": 5516,
      "ĠShampiyona": 5517,
      "izi": 5518,
      "imvura": 5519,
      "hutisha": 5520,
      "ĠHagati": 5521,
      "Ġguseze": 5522,
      "Ġkuzunguruka": 5523,
      "ãĢ": 5524,
      "byaro": 5525,
      "tuwe": 5526,
      "gerageje": 5527,
      "ĠHanyuma": 5528,
      "ĠUbushakashatsi": 5529,
      "Ġwibi": 5530,
      "indirimbo": 5531,
      "Ġbirashoboka": 5532,
      "ikibazo": 5533,
      "Ġdisi": 5534,
      "Ġcyaha": 5535,
      "Ġbakajya": 5536,
      "ĠInzira": 5537,
      "Ġitike": 5538,
      "Ġinkoni": 5539,
      "Yo": 5540,
      "ys": 5541,
      "ker": 5542,
      "ĠVol": 5543,
      "ĠSan": 5544,
      "Ġbyamu": 5545,
      "Ati": 5546,
      "Ġishingiro": 5547,
      "Ġbigamije": 5548,
      "Ġutari": 5549,
      "Ġkugaruka": 5550,
      "Ġkuro": 5551,
      "Ġgukunda": 5552,
      "shyurwa": 5553,
      "myambarire": 5554,
      "ĠNtu": 5555,
      "mbwira": 5556,
      "shyire": 5557,
      "Ġyubatswe": 5558,
      "ĠInkotanyi": 5559,
      "Ġrwinshi": 5560,
      "âĢĺ": 5561,
      "Ġke": 5562,
      "Ġinter": 5563,
      "chi": 5564,
      "Ġmazu": 5565,
      "imyenda": 5566,
      "Ġ36": 5567,
      "mano": 5568,
      "Ġagace": 5569,
      "kenke": 5570,
      "jwemo": 5571,
      "kwirakwizwa": 5572,
      "shisho": 5573,
      "Ġmahugurwa": 5574,
      "Ġbwakozwe": 5575,
      "Ġkumwi": 5576,
      "Ġubusanzwe": 5577,
      "Ġgukira": 5578,
      "ny": 5579,
      "Ġbatiri": 5580,
      "Ġimitungo": 5581,
      "100": 5582,
      "ĠAmbasaderi": 5583,
      "rangantego": 5584,
      ":\"": 5585,
      "gabanu": 5586,
      "Ġatandatu": 5587,
      "Ġamatwi": 5588,
      "Ġkongeramo": 5589,
      "Ġnicyuma": 5590,
      "Ġimbogamizi": 5591,
      "ĠAM": 5592,
      "nganijwe": 5593,
      "Ġkwiteza": 5594,
      "Ġhato": 5595,
      "Ġwundi": 5596,
      "gatifu": 5597,
      "Ġzikaba": 5598,
      "Ġnkumu": 5599,
      "zoga": 5600,
      "ĠKagari": 5601,
      "ĠADEPR": 5602,
      "intambara": 5603,
      "ĠNyabi": 5604,
      "ĠKomini": 5605,
      "Ġuhuza": 5606,
      "nganira": 5607,
      "ĠSIDA": 5608,
      "Ġitumanaho": 5609,
      "ĠMala": 5610,
      "manya": 5611,
      "Ġikizamini": 5612,
      "Ġelectro": 5613,
      "Ġac": 5614,
      "cyiciro": 5615,
      "ĠEu": 5616,
      "ĠSerivi": 5617,
      "nezero": 5618,
      "burengerazuba": 5619,
      "Ġikiguzi": 5620,
      "ĠAra": 5621,
      "Ġagi": 5622,
      "maye": 5623,
      "sohoye": 5624,
      "Ġpolyester": 5625,
      "Ġgucuruza": 5626,
      "anditsi": 5627,
      "ristu": 5628,
      "Ġnuru": 5629,
      "Ġmbona": 5630,
      "dore": 5631,
      "Ġuburezi": 5632,
      "ĠNoneho": 5633,
      "ĠIsra": 5634,
      "Ġshuri": 5635,
      "mahanga": 5636,
      "kiranya": 5637,
      "rugero": 5638,
      "Ġgushora": 5639,
      "tekerereze": 5640,
      "tabiriwe": 5641,
      "ĠBw": 5642,
      "Ġimyanya": 5643,
      "Ġyibanze": 5644,
      "Ġkuguha": 5645,
      "ĠUN": 5646,
      "ĠCent": 5647,
      "Igishushanyo": 5648,
      "Ġtwaba": 5649,
      "Ġihitamo": 5650,
      "Ġibitaro": 5651,
      "Ġharuguru": 5652,
      "don": 5653,
      "Ġicyifuzo": 5654,
      "imashini": 5655,
      "Ġcyuzuye": 5656,
      "ĠCNC": 5657,
      "Ġnogu": 5658,
      "Ġ33": 5659,
      "rehe": 5660,
      "HA": 5661,
      "ww": 5662,
      "hisha": 5663,
      "tho": 5664,
      "Ġumujyi": 5665,
      "Ġigitabo": 5666,
      "Ġcumi": 5667,
      "ĠClub": 5668,
      "Ġkoperative": 5669,
      "ĠMudugudu": 5670,
      "ĠCy": 5671,
      "ĠAnd": 5672,
      "ĠIshinga": 5673,
      "lometero": 5674,
      "nyeshuri": 5675,
      "Ġreberi": 5676,
      "inyarwanda": 5677,
      "Ġturashobora": 5678,
      "urwego": 5679,
      "Ġamafoto": 5680,
      "zuze": 5681,
      "Ġkwitegura": 5682,
      "rondoro": 5683,
      "cyan": 5684,
      "fari": 5685,
      "Ġigifungo": 5686,
      "âĤ¬": 5687,
      "geri": 5688,
      "shonga": 5689,
      "ĠPP": 5690,
      "ĠPS": 5691,
      "ĠCe": 5692,
      "tuba": 5693,
      "Ġryubu": 5694,
      "ĠPierre": 5695,
      "Ġakoresha": 5696,
      "Ġutaha": 5697,
      "Ġisaba": 5698,
      "Ġikiganiro": 5699,
      "ĠHabyarimana": 5700,
      "Ġkudu": 5701,
      "Ġumuhungu": 5702,
      "shingiwe": 5703,
      "Ġyashyizeho": 5704,
      "Ġkubwiriza": 5705,
      "Ġmoshi": 5706,
      "Ġkumasoko": 5707,
      "Ġdosiye": 5708,
      "ĠNyamasheke": 5709,
      "Ikin": 5710,
      "pper": 5711,
      "ĠAir": 5712,
      "Ġngufu": 5713,
      "can": 5714,
      "Ġbavu": 5715,
      "Ġigendanwa": 5716,
      "Ġntebe": 5717,
      "Ġniwe": 5718,
      "Ġcomp": 5719,
      "Ġbidukikije": 5720,
      "tesi": 5721,
      "Ġkugaburira": 5722,
      "yonga": 5723,
      "Ġbiha": 5724,
      "Ġyibikoresho": 5725,
      "Ġlisansi": 5726,
      "ĠKubwibyo": 5727,
      "segonda": 5728,
      "ngero": 5729,
      "Ġageze": 5730,
      "ner": 5731,
      "Ġibyiciro": 5732,
      "Ġkumeneka": 5733,
      "yunguruzo": 5734,
      "lene": 5735,
      "Ġtukaba": 5736,
      "Ġibihembo": 5737,
      "ĠNyagasani": 5738,
      "sohora": 5739,
      "dium": 5740,
      "hwi": 5741,
      "Ġyato": 5742,
      "ĠPu": 5743,
      "Ġkumara": 5744,
      "Ġmumazi": 5745,
      "Ġgutakaza": 5746,
      "Ġbaramu": 5747,
      "ĠIntego": 5748,
      "Ġnako": 5749,
      "umurenge": 5750,
      "Ġburashobora": 5751,
      "90": 5752,
      "Ġrubanda": 5753,
      "Ġbubiri": 5754,
      "Ġakamu": 5755,
      "Ġbikwiranye": 5756,
      "bwoko": 5757,
      "Ã¢": 5758,
      "Ġzumu": 5759,
      "ĠNkuko": 5760,
      "Ġimpamyabumenyi": 5761,
      "karito": 5762,
      "):": 5763,
      "yamatsiko": 5764,
      "inyururu": 5765,
      "Ġrivuga": 5766,
      "Icyo": 5767,
      "Ġakunda": 5768,
      "Ġmuco": 5769,
      "Ġ48": 5770,
      "ĠPhi": 5771,
      "ĠTshi": 5772,
      "bum": 5773,
      "Ġkwibanda": 5774,
      "Ġpla": 5775,
      "ĠKoresha": 5776,
      "dirishya": 5777,
      "lon": 5778,
      "Ġakoreshwa": 5779,
      "Ġabarimu": 5780,
      "ĠTechno": 5781,
      "Ġrwohejuru": 5782,
      "Ġahabwa": 5783,
      "Ġwahoze": 5784,
      "RW": 5785,
      "Ġinkweto": 5786,
      "Ġkuruhande": 5787,
      "itegeko": 5788,
      "ride": 5789,
      "rwibutso": 5790,
      "Ġkubiciro": 5791,
      "ĠFre": 5792,
      "xyde": 5793,
      "OS": 5794,
      "Ġryayo": 5795,
      "500": 5796,
      "tya": 5797,
      "tegetse": 5798,
      "ĠNza": 5799,
      "ĠBubiligi": 5800,
      "Ġkumenyekana": 5801,
      "sanganyamatsiko": 5802,
      "ibiciro": 5803,
      "shanu": 5804,
      "Ġazwi": 5805,
      "mar": 5806,
      "Ġbahi": 5807,
      "tanya": 5808,
      "Ġkubikora": 5809,
      "ĠIbikorwa": 5810,
      "yisi": 5811,
      "Ġimirasire": 5812,
      "ibiribwa": 5813,
      "niko": 5814,
      "Ġcyemezo": 5815,
      "widi": 5816,
      "rukana": 5817,
      "Ġtsinda": 5818,
      "Ġingu": 5819,
      "Ġmpande": 5820,
      "Ġshingiro": 5821,
      "kongo": 5822,
      "mvise": 5823,
      "gitale": 5824,
      "Ġdukesha": 5825,
      "Ye": 5826,
      "ĠUmuhanzi": 5827,
      "Ġimyitwarire": 5828,
      "mes": 5829,
      "genderwaho": 5830,
      "dukoko": 5831,
      "Ġkuvugana": 5832,
      "Ġububasha": 5833,
      "Ġyavuye": 5834,
      "Ġbasaga": 5835,
      "Ġgari": 5836,
      "hereje": 5837,
      "huze": 5838,
      "ĠYumu": 5839,
      "Ġdigitale": 5840,
      "Ġmm": 5841,
      "Ġimizigo": 5842,
      "bile": 5843,
      "Ġbakobwa": 5844,
      "ĠUmunsi": 5845,
      "rerwa": 5846,
      "Ġimikoreshereze": 5847,
      "Ġatangira": 5848,
      "giti": 5849,
      "rwanyi": 5850,
      "Ġbakabi": 5851,
      "Ġihumure": 5852,
      "Ġisahani": 5853,
      "amanota": 5854,
      "Ġyahu": 5855,
      "Intara": 5856,
      "Ġvide": 5857,
      "hoza": 5858,
      "low": 5859,
      "Ġyimyenda": 5860,
      "Ġcyumba": 5861,
      "ibyuma": 5862,
      "Ġdiameter": 5863,
      "27": 5864,
      "Ġuburwayi": 5865,
      "abari": 5866,
      "Ġmpanuka": 5867,
      "Ġne": 5868,
      "ĠNiyon": 5869,
      "itangazamakuru": 5870,
      "Ġbatanu": 5871,
      "Ġyakiriye": 5872,
      "gabanye": 5873,
      ":âĢĿ": 5874,
      "bunda": 5875,
      "rew": 5876,
      "ĠDawidi": 5877,
      "Ġyatu": 5878,
      "urupfu": 5879,
      "Ġnigikoresho": 5880,
      "Ġkida": 5881,
      "Ġrishingiye": 5882,
      "ruganda": 5883,
      "meje": 5884,
      "shishwa": 5885,
      "int": 5886,
      "Ġkonti": 5887,
      "Ġgikombe": 5888,
      "ĠAgasanduku": 5889,
      "Ġitabi": 5890,
      "toni": 5891,
      "Ġguhindurwa": 5892,
      "vani": 5893,
      "Ġbar": 5894,
      "Ġhakuriki": 5895,
      "Ġbyateye": 5896,
      "byumva": 5897,
      "Ġbasanga": 5898,
      "Ġwumva": 5899,
      "cuum": 5900,
      "Ġnara": 5901,
      "mogi": 5902,
      "Ġikizere": 5903,
      "Ġbakaza": 5904,
      "koperative": 5905,
      "tiki": 5906,
      "Ġturimo": 5907,
      "lamu": 5908,
      "ĠBwa": 5909,
      "Ġaribo": 5910,
      ",âĢĿ": 5911,
      "Ġkwitabwaho": 5912,
      "Ġgutwika": 5913,
      "Ġabwira": 5914,
      "Â°": 5915,
      "Ġmubidukikije": 5916,
      "Umujyi": 5917,
      "gengabitekerezo": 5918,
      "yejana": 5919,
      "PS": 5920,
      "Ġbirebana": 5921,
      "ĠSen": 5922,
      "abakiriya": 5923,
      "lix": 5924,
      "ĠBurusiya": 5925,
      "Ġhydro": 5926,
      "ĠMpuzamahanga": 5927,
      "Aka": 5928,
      "Ġkubw": 5929,
      "Ġgukurikiza": 5930,
      "Ġumukunzi": 5931,
      "Ġamarushanwa": 5932,
      "Ġrutanga": 5933,
      "taliki": 5934,
      "Ġyera": 5935,
      "Ġurupfu": 5936,
      "Ġx": 5937,
      "Ġuha": 5938,
      "Ġyiteguye": 5939,
      "ERW": 5940,
      "mpo": 5941,
      "ĠGoma": 5942,
      "ĠBosco": 5943,
      "miza": 5944,
      "ĠBara": 5945,
      "Ġsilin": 5946,
      "Ġbakomeza": 5947,
      "Ġbusa": 5948,
      "tonze": 5949,
      "ure": 5950,
      "muriza": 5951,
      "ĠSudani": 5952,
      "ĠÃĹ": 5953,
      "Ġakeneye": 5954,
      "ubumwe": 5955,
      "ĠKirehe": 5956,
      "UT": 5957,
      "ibiti": 5958,
      "Ġbikomeje": 5959,
      "Ġsp": 5960,
      "tsindira": 5961,
      "tunganye": 5962,
      "yonza": 5963,
      "Ġyafashwe": 5964,
      "Ġburimo": 5965,
      "amatungo": 5966,
      "Urwego": 5967,
      "Ġisonga": 5968,
      "inyujije": 5969,
      "ijoro": 5970,
      "ĠImpamvu": 5971,
      "hererekanya": 5972,
      "rekanwe": 5973,
      "vel": 5974,
      "....": 5975,
      "2012": 5976,
      "hesha": 5977,
      "Ġimitako": 5978,
      "Ġkwanduza": 5979,
      "Ġbabone": 5980,
      "Ġnkibikoresho": 5981,
      "Ġbyemewe": 5982,
      "ĠBizimana": 5983,
      "Ġyerekeza": 5984,
      "ĠIterambere": 5985,
      "lip": 5986,
      "Ġarenga": 5987,
      "Ġgiciro": 5988,
      "Ġmasoko": 5989,
      "yum": 5990,
      "inyuze": 5991,
      "ĠNsengi": 5992,
      "hinduwe": 5993,
      "ĠPetero": 5994,
      "ĠAre": 5995,
      "Ġyabanje": 5996,
      "sekedi": 5997,
      "Byongeye": 5998,
      "Ġicyenda": 5999,
      "Ġbiteganyijwe": 6000,
      "Ġbuyobozi": 6001,
      "ĠInda": 6002,
      "tambo": 6003,
      "Ġnicyo": 6004,
      "ĠJi": 6005,
      "Nda": 6006,
      "ĠUbwi": 6007,
      "ĠIgisubizo": 6008,
      "isa": 6009,
      "Ġihindagurika": 6010,
      "Ġrobo": 6011,
      "Ġkubye": 6012,
      "sanzure": 6013,
      "ĠLeague": 6014,
      "abanyarwanda": 6015,
      "Ġbakoresheje": 6016,
      "Ġcyayo": 6017,
      "Ġrurimi": 6018,
      "ĠHano": 6019,
      "peri": 6020,
      "tanium": 6021,
      "Ġsen": 6022,
      "ubumenyi": 6023,
      "lastike": 6024,
      "Ġikorwa": 6025,
      "ĠAs": 6026,
      "ĠMenya": 6027,
      "Ġkidasanzwe": 6028,
      "nzwe": 6029,
      "ance": 6030,
      "Ġmishinga": 6031,
      "Ġmibereho": 6032,
      "kwigendera": 6033,
      "zwaga": 6034,
      "national": 6035,
      "vugurura": 6036,
      "Ġmirenge": 6037,
      "Ġrugamba": 6038,
      "ĠGato": 6039,
      "Ġzan": 6040,
      "hirizwa": 6041,
      "Ġikubiyemo": 6042,
      "usto": 6043,
      "ĠIsrael": 6044,
      "Ġihinduka": 6045,
      "Ġbyatangajwe": 6046,
      "Ġparike": 6047,
      "Ġabaganga": 6048,
      "Ġcyacyo": 6049,
      "ration": 6050,
      "ĠNiyo": 6051,
      "nziza": 6052,
      "jeje": 6053,
      "garariye": 6054,
      "ĠGreen": 6055,
      "rwano": 6056,
      "ĠJeanne": 6057,
      "Ġkizaza": 6058,
      "Ġukoresha": 6059,
      "Ġguhaza": 6060,
      "itsinda": 6061,
      "ĠIharanira": 6062,
      "Ġgisanzwe": 6063,
      "Ġurukuta": 6064,
      "Ru": 6065,
      "ranti": 6066,
      "Ġgikwiye": 6067,
      "ĠBudage": 6068,
      "cyitegererezo": 6069,
      "Ġyasobanuye": 6070,
      "fiya": 6071,
      "angwe": 6072,
      "Ġakajya": 6073,
      "Ġbasabwa": 6074,
      "eng": 6075,
      "Ġababi": 6076,
      "Ġ2011": 6077,
      "sobe": 6078,
      "tugu": 6079,
      "ganyega": 6080,
      "Ġbakorana": 6081,
      "Ġyateguwe": 6082,
      "vunyi": 6083,
      "Ġzituma": 6084,
      "Ġhabeho": 6085,
      "Ġkuruhuka": 6086,
      "Ġrwiyemezamirimo": 6087,
      "ĠKarongi": 6088,
      "zeyimana": 6089,
      "Ġmuza": 6090,
      "migambi": 6091,
      "fashan": 6092,
      "Ġkubafasha": 6093,
      "ĠAmavubi": 6094,
      "Ġuwari": 6095,
      "ĠMadamu": 6096,
      "ĠAlex": 6097,
      "Ġkibisi": 6098,
      "Ġbwan": 6099,
      "mbukiranya": 6100,
      "Ġimanza": 6101,
      "ĠkuriUbushinwa": 6102,
      "Ġmbaraga": 6103,
      "temewe": 6104,
      "Ġimisoro": 6105,
      "koma": 6106,
      "butse": 6107,
      "teje": 6108,
      "hubwo": 6109,
      "Ġbyiyongera": 6110,
      "Ġiramba": 6111,
      "ĠHariho": 6112,
      "Ġrigezweho": 6113,
      "Ġkubanza": 6114,
      "Ġ38": 6115,
      "ĠIcyemezo": 6116,
      "shushanyije": 6117,
      "Ġmuziki": 6118,
      "ĠVe": 6119,
      "ĠGuhitamo": 6120,
      "Ġbushingiye": 6121,
      "Inama": 6122,
      "hererekane": 6123,
      "Ġbiti": 6124,
      "Ġbubi": 6125,
      "Ġbafashe": 6126,
      "kg": 6127,
      "amaraso": 6128,
      "Ġ600": 6129,
      "Ġukore": 6130,
      "ĠMubisanzwe": 6131,
      "ĠIzina": 6132,
      "ssage": 6133,
      "voma": 6134,
      "Ġnibo": 6135,
      "ishami": 6136,
      "Ġimbwa": 6137,
      "Ġigihano": 6138,
      "yunge": 6139,
      "Ġbahitamo": 6140,
      "Ġumukono": 6141,
      "ringaniye": 6142,
      "Uburayi": 6143,
      "Ġifumbire": 6144,
      "doda": 6145,
      "hagira": 6146,
      "mererwa": 6147,
      "Ġgusohoka": 6148,
      "Ġibitabo": 6149,
      "Ġziterwa": 6150,
      "Ġikaze": 6151,
      "Ġumusore": 6152,
      "paki": 6153,
      "icyumweru": 6154,
      "Ġumwobo": 6155,
      "ĠHanze": 6156,
      "genamigambi": 6157,
      "sketball": 6158,
      "ĠTshisekedi": 6159,
      "ĠTechnology": 6160,
      "rengane": 6161,
      "pfundi": 6162,
      "Ġimibonano": 6163,
      "babare": 6164,
      "Ġeshanu": 6165,
      "Ġkwiyu": 6166,
      "taliyani": 6167,
      "dende": 6168,
      "mwana": 6169,
      "icyorezo": 6170,
      "Ġtaliki": 6171,
      "ĠAbayobozi": 6172,
      "kubiye": 6173,
      "ĠIkoranabuhanga": 6174,
      "hagaritse": 6175,
      "saya": 6176,
      "shyiki": 6177,
      "ylon": 6178,
      "Ġirindwi": 6179,
      "Ġyangiza": 6180,
      "ĠIngabo": 6181,
      "DI": 6182,
      "Ġikwiye": 6183,
      "wacu": 6184,
      "Ġyagombaga": 6185,
      "Ġmumashanyarazi": 6186,
      "ĠIbintu": 6187,
      "ĠIntara": 6188,
      "Po": 6189,
      "genwe": 6190,
      "rangamutima": 6191,
      "Ġusibye": 6192,
      "Ġindabyo": 6193,
      "Ġkubyaza": 6194,
      "Ġagu": 6195,
      "abafite": 6196,
      "simbuye": 6197,
      "ĠTour": 6198,
      "it": 6199,
      "Ġkwitwara": 6200,
      "gome": 6201,
      "umunya": 6202,
      "ence": 6203,
      "ĠUbusanzwe": 6204,
      "Ġyinjira": 6205,
      "ubuziranenge": 6206,
      "shimire": 6207,
      "Ġmesh": 6208,
      "ĠKugenzura": 6209,
      "ĠKayonza": 6210,
      "Ġadafite": 6211,
      "ubutabera": 6212,
      "Ġindashyikirwa": 6213,
      "Ġryibi": 6214,
      "Ġntera": 6215,
      "Abatutsi": 6216,
      "ĠGakenke": 6217,
      "Ġelegitoronike": 6218,
      "Ġijwi": 6219,
      "rim": 6220,
      "moso": 6221,
      "Ġkwandura": 6222,
      "Ġ120": 6223,
      "nanirwa": 6224,
      "mpinga": 6225,
      "Ġpulasitike": 6226,
      "yahudi": 6227,
      "rema": 6228,
      "kiya": 6229,
      "Ġmyanya": 6230,
      "GB": 6231,
      "ĠCyi": 6232,
      "vange": 6233,
      "Ġakavuga": 6234,
      "Ġrwama": 6235,
      "Ġ34": 6236,
      "fungi": 6237,
      "Ġsc": 6238,
      "ruwasi": 6239,
      "nywa": 6240,
      "Ubwiza": 6241,
      "ĠII": 6242,
      "zitiro": 6243,
      "Ġikarita": 6244,
      "Ġaherutse": 6245,
      "Ġabakunzi": 6246,
      "fatira": 6247,
      "ĠCity": 6248,
      "Ġyabaga": 6249,
      "yoboke": 6250,
      "Ġkwemera": 6251,
      "pfuka": 6252,
      "ĠAbana": 6253,
      "hugura": 6254,
      "ĠTele": 6255,
      "Ġuhe": 6256,
      "ĠNyi": 6257,
      "sinzi": 6258,
      "myitozo": 6259,
      "Ġkunyerera": 6260,
      "py": 6261,
      "saka": 6262,
      "Ġmumahanga": 6263,
      "Ġzindi": 6264,
      "gezaho": 6265,
      "Ġgusukura": 6266,
      "Ġduto": 6267,
      "litiro": 6268,
      "ĠKumenyekanisha": 6269,
      "fungiye": 6270,
      "simbura": 6271,
      "Ġlabora": 6272,
      "Ġumugambi": 6273,
      "fatanije": 6274,
      "veni": 6275,
      "Ġgutandukanya": 6276,
      "manuka": 6277,
      "Ġgukanda": 6278,
      "08": 6279,
      "Ġava": 6280,
      "sigara": 6281,
      "Ġbyateguwe": 6282,
      "Ġ37": 6283,
      "ĠAlumini": 6284,
      "Ġintsinzi": 6285,
      "Ġubuhamya": 6286,
      "Ġbwiki": 6287,
      "ĠUkurikije": 6288,
      "ĠIsoko": 6289,
      "Ġyongera": 6290,
      "Ġbyagaragaye": 6291,
      "Ġgicuruzwa": 6292,
      "inyama": 6293,
      "intoki": 6294,
      "Ġabanyama": 6295,
      "Ġyaku": 6296,
      "Ġnubwoko": 6297,
      "Ġgusenga": 6298,
      "Ġubukangurambaga": 6299,
      "wn": 6300,
      "Ġbwimi": 6301,
      "Ġtwara": 6302,
      "sya": 6303,
      "Ġubanza": 6304,
      "ĠUmubare": 6305,
      "Ġibikombe": 6306,
      "Ġyigeze": 6307,
      "ĠIC": 6308,
      "shingikiri": 6309,
      "Ġumwihariko": 6310,
      "ĠIB": 6311,
      "Ġhabayeho": 6312,
      "ons": 6313,
      "garagambyo": 6314,
      "nes": 6315,
      "kungahaye": 6316,
      "65": 6317,
      "Ġrirambye": 6318,
      "ĠMuhi": 6319,
      "ĠVa": 6320,
      "imbuto": 6321,
      "Ġbeza": 6322,
      "Ġyaguye": 6323,
      "Ġgikora": 6324,
      "lemu": 6325,
      "tuza": 6326,
      "wera": 6327,
      "Ġkagari": 6328,
      "lect": 6329,
      "Ġyateye": 6330,
      "Ġingero": 6331,
      "Ġgushyin": 6332,
      "Ġamaherezo": 6333,
      "jangwe": 6334,
      "ĠPolitiki": 6335,
      "Ġibyumba": 6336,
      "Ġmenya": 6337,
      "Ġica": 6338,
      "Ġafata": 6339,
      "Ġyatewe": 6340,
      "Ġniho": 6341,
      "ĠChri": 6342,
      "ANA": 6343,
      "Ġrura": 6344,
      "josi": 6345,
      "ĠBwinshi": 6346,
      "ĠUC": 6347,
      "ĠBri": 6348,
      "Ġzitwara": 6349,
      "twandikira": 6350,
      "ĠImwe": 6351,
      "Ġkubakwa": 6352,
      "tes": 6353,
      "imiterere": 6354,
      "ĠAbakristo": 6355,
      "ganire": 6356,
      "ĠCom": 6357,
      "ayo": 6358,
      "hujwe": 6359,
      "Ġimipira": 6360,
      "Ġkuyungurura": 6361,
      "ĠCusto": 6362,
      "2013": 6363,
      "Ġazajya": 6364,
      "fero": 6365,
      "Ġbukwiye": 6366,
      "03": 6367,
      "as": 6368,
      "ĠIkoreshwa": 6369,
      "Ġryan": 6370,
      "sekuru": 6371,
      "Ġbyoherezwa": 6372,
      "Ġntaho": 6373,
      "Ġibiribwa": 6374,
      "Ġiherereye": 6375,
      "Ġngu": 6376,
      "shidikanya": 6377,
      "Ġtuda": 6378,
      "Ġibyan": 6379,
      "Ġicyuho": 6380,
      "Ġmabwiriza": 6381,
      "Ġyapfuye": 6382,
      "Ġmato": 6383,
      "byaha": 6384,
      "tekereje": 6385,
      "inka": 6386,
      "Ġburebure": 6387,
      "Ġkwishyurwa": 6388,
      "ubw": 6389,
      "Ġitangwa": 6390,
      "tsiro": 6391,
      "ĠBanyarwanda": 6392,
      "Ġakwiye": 6393,
      "Ġyiba": 6394,
      "Irashobora": 6395,
      "rgo": 6396,
      "Ġkumwanya": 6397,
      "ĠBateri": 6398,
      "muco": 6399,
      "Ġyambaye": 6400,
      "Ġbikomeza": 6401,
      "Ġimbunda": 6402,
      "Ġasa": 6403,
      "Ġbasanze": 6404,
      "ĠInkuru": 6405,
      "rotse": 6406,
      "muneka": 6407,
      "Ġasobanura": 6408,
      "Ġbadafite": 6409,
      "Ġzigomba": 6410,
      "ĠYeru": 6411,
      "Ġigare": 6412,
      "ames": 6413,
      "URU": 6414,
      "stagram": 6415,
      "Ġyasubi": 6416,
      "Ġtumaze": 6417,
      "mpanyi": 6418,
      "Ġbuji": 6419,
      "rekezo": 6420,
      "Ibyo": 6421,
      "Ġabanyamakuru": 6422,
      "Ġndege": 6423,
      "jurire": 6424,
      "ĠKomite": 6425,
      "nta": 6426,
      "Ġimitsi": 6427,
      "ĠUmunyarwanda": 6428,
      "yemerera": 6429,
      "Ġyegukanye": 6430,
      "zamutse": 6431,
      "Ġumutwaro": 6432,
      "ĠHaki": 6433,
      "Ġrwibi": 6434,
      "âĢ²": 6435,
      "Ġ75": 6436,
      "Ġgutaha": 6437,
      "ĠUmunya": 6438,
      "Ġsensor": 6439,
      "umura": 6440,
      "Ġyare": 6441,
      "ĠXi": 6442,
      "ffi": 6443,
      "Ġkeza": 6444,
      "minsi": 6445,
      "zaga": 6446,
      "shishozi": 6447,
      "bukije": 6448,
      "ĠAd": 6449,
      "ERWAFA": 6450,
      "Ġntambara": 6451,
      "Ġbukora": 6452,
      "Ġwifuza": 6453,
      "ĠUndi": 6454,
      "ĠAB": 6455,
      "Ġkaremano": 6456,
      "hizamu": 6457,
      "Ġbyuma": 6458,
      "DB": 6459,
      "bine": 6460,
      "ĠKoreya": 6461,
      "hengeri": 6462,
      "muha": 6463,
      "ĠCharles": 6464,
      "ĠIbyiza": 6465,
      "Ġumukungugu": 6466,
      "ĠInno": 6467,
      "Ġitwara": 6468,
      "Ġbunoze": 6469,
      "ĠKubu": 6470,
      "29": 6471,
      "Ġuw": 6472,
      "gitari": 6473,
      "Kuri": 6474,
      "ĠNyamagabe": 6475,
      "shati": 6476,
      "motari": 6477,
      "Ġbizatuma": 6478,
      "Ġngabo": 6479,
      "jega": 6480,
      "YE": 6481,
      "Ġmagana": 6482,
      "Ġyemera": 6483,
      "mpande": 6484,
      "Ġigikapu": 6485,
      "ĠSp": 6486,
      "hane": 6487,
      "umutwe": 6488,
      "kiran": 6489,
      "nic": 6490,
      "ĠIgikorwa": 6491,
      "Ġbahura": 6492,
      "ĠUSB": 6493,
      "Ġmukinnyi": 6494,
      "Ġintumwa": 6495,
      "Ġubwabo": 6496,
      "umujyi": 6497,
      "Igihe": 6498,
      "wemo": 6499,
      "roro": 6500,
      "ĠAnge": 6501,
      "ressor": 6502,
      "Ġgutembera": 6503,
      "IG": 6504,
      "Ġkamera": 6505,
      "kata": 6506,
      "Ġshe": 6507,
      "neza": 6508,
      "Ġumuhango": 6509,
      "Ġmihanda": 6510,
      "EB": 6511,
      "kirisitu": 6512,
      "op": 6513,
      "Ġimpeta": 6514,
      "abanyamakuru": 6515,
      "Ġtwiyemeje": 6516,
      "Ġbibaye": 6517,
      "hinduranya": 6518,
      "nte": 6519,
      "tonyanga": 6520,
      "Ġmuzika": 6521,
      "chin": 6522,
      "ms": 6523,
      "Ġabacuruzi": 6524,
      "fura": 6525,
      "Ã¨ne": 6526,
      "syo": 6527,
      "Ġibirango": 6528,
      "ĠJames": 6529,
      "yabiziga": 6530,
      "Ġihohoterwa": 6531,
      "Ġkigomba": 6532,
      "ĠImpapuro": 6533,
      "Ġmusaruro": 6534,
      "Ġbiremereye": 6535,
      "ubworozi": 6536,
      "Urukiko": 6537,
      "Ġajyanye": 6538,
      "lile": 6539,
      "Ġgukingira": 6540,
      "Ġbemeza": 6541,
      "zengurutse": 6542,
      "hurira": 6543,
      "isuku": 6544,
      "rÃ©": 6545,
      "Ġmumyaka": 6546,
      "iza": 6547,
      "Ġkuvanga": 6548,
      "ĠWo": 6549,
      "Ġngamba": 6550,
      "Ġngenderwaho": 6551,
      "masi": 6552,
      "buke": 6553,
      "ĠSatani": 6554,
      "TN": 6555,
      "ata": 6556,
      "ĠAna": 6557,
      "mereye": 6558,
      "Ġzunze": 6559,
      "Pere": 6560,
      "Ġabaza": 6561,
      "timetero": 6562,
      "ĠUrunigi": 6563,
      "Ġdogere": 6564,
      "Ġugira": 6565,
      "banji": 6566,
      "land": 6567,
      "Ġinyigisho": 6568,
      "Ġyasin": 6569,
      "jeniyeri": 6570,
      "ĠRutsiro": 6571,
      "tagatifu": 6572,
      "ĠKurugero": 6573,
      "Ġyitabiriye": 6574,
      "umuvuduko": 6575,
      "ham": 6576,
      "Ġnibice": 6577,
      "Ġkuzenguruka": 6578,
      "itorero": 6579,
      "Ġda": 6580,
      "Ġkiga": 6581,
      "Ġmububiko": 6582,
      "ĠBra": 6583,
      "thium": 6584,
      "sembu": 6585,
      "inzira": 6586,
      "Ġbyihutirwa": 6587,
      "umye": 6588,
      "Ġntawe": 6589,
      "Ġabatuye": 6590,
      "izo": 6591,
      "garagazwa": 6592,
      "Ġlitiro": 6593,
      "Ġinternet": 6594,
      "07": 6595,
      "AG": 6596,
      "ĠMU": 6597,
      "Ġbikabije": 6598,
      "shishikajwe": 6599,
      "48": 6600,
      "Ġigihombo": 6601,
      "ĠAbagore": 6602,
      "ĠHabi": 6603,
      "logi": 6604,
      "ĠUmwana": 6605,
      "Bira": 6606,
      "hakana": 6607,
      "banywa": 6608,
      "cap": 6609,
      "ĠDani": 6610,
      "itumanaho": 6611,
      "Ġmupira": 6612,
      "Ġukorera": 6613,
      "Ġzara": 6614,
      "Ġbiturutse": 6615,
      "sis": 6616,
      "06": 6617,
      "Ġkuririmba": 6618,
      "ĠRuta": 6619,
      "ĠBK": 6620,
      "Ġbwimyenda": 6621,
      "Ġibitero": 6622,
      "ruye": 6623,
      "Ġyumye": 6624,
      "Ġicyubahiro": 6625,
      "ptique": 6626,
      "vin": 6627,
      "Ġkwigira": 6628,
      "Ġinzitizi": 6629,
      "Kuva": 6630,
      "Ġizamu": 6631,
      "runga": 6632,
      "Ġubwato": 6633,
      "Ġimpunzi": 6634,
      "rgono": 6635,
      "ĠIshami": 6636,
      "Ġbagiteri": 6637,
      "lange": 6638,
      "Ġbitwa": 6639,
      "kundaga": 6640,
      "ĠTwe": 6641,
      "umushinga": 6642,
      "Ġubwiherero": 6643,
      "Ġutara": 6644,
      "aya": 6645,
      "32": 6646,
      "Ġyemeye": 6647,
      "Ġabanyamuryango": 6648,
      "Ġumufuka": 6649,
      "tiriwe": 6650,
      "PE": 6651,
      "val": 6652,
      "Ġmodu": 6653,
      "llet": 6654,
      "ĠGupakira": 6655,
      "Co": 6656,
      "Ġmanda": 6657,
      "keza": 6658,
      ".âĢĻâĢĻ": 6659,
      "ĠQu": 6660,
      "ries": 6661,
      "Ġito": 6662,
      "Ġndanga": 6663,
      "amas": 6664,
      "Ġakoresheje": 6665,
      "Ġbatanze": 6666,
      "Ġgukenera": 6667,
      "Ġnimi": 6668,
      "Ġariho": 6669,
      "05": 6670,
      "Ġkimaze": 6671,
      "Ġagenda": 6672,
      "range": 6673,
      "Ġabapolisi": 6674,
      "dou": 6675,
      "Perezida": 6676,
      "toma": 6677,
      "Turi": 6678,
      "Ġguhatanira": 6679,
      "ĠInternational": 6680,
      "Ġkizaba": 6681,
      "mwuka": 6682,
      "Ġishyirwa": 6683,
      "bwato": 6684,
      "Ġtegeko": 6685,
      "sion": 6686,
      "âĢĭâĢĶ": 6687,
      "Ġwongere": 6688,
      "Ġmwene": 6689,
      "Ġhazaba": 6690,
      "ĠCana": 6691,
      "Ġacide": 6692,
      "zer": 6693,
      "aniwe": 6694,
      "Ġbabaga": 6695,
      "shimangiye": 6696,
      "Ġbitanu": 6697,
      "Ġgusangira": 6698,
      "ĠUmugabo": 6699,
      "Ġbava": 6700,
      "cece": 6701,
      "Ġihuriro": 6702,
      "Ġ65": 6703,
      "Ġmubintu": 6704,
      "Ġimyanzuro": 6705,
      "ĠCH": 6706,
      "Ġyububiko": 6707,
      "Ġyabyo": 6708,
      "Ġabagera": 6709,
      "Ġmijyi": 6710,
      "ĠAi": 6711,
      "Ġdio": 6712,
      "henze": 6713,
      "Ġinyu": 6714,
      "ĠOlivier": 6715,
      "yere": 6716,
      "ness": 6717,
      "Ġumugisha": 6718,
      "Ġagamije": 6719,
      "sobanurira": 6720,
      "shyimbo": 6721,
      "Ġabatanga": 6722,
      "cisha": 6723,
      "Ġ250": 6724,
      "ĠUbuzima": 6725,
      "Ġbatazi": 6726,
      "Ġyambere": 6727,
      "Ġmubicuruzwa": 6728,
      "ndwi": 6729,
      "Ġugere": 6730,
      "umutungo": 6731,
      "Ġkwimura": 6732,
      "ĠPre": 6733,
      "inisiteri": 6734,
      "ĠMusenyeri": 6735,
      "pel": 6736,
      "thio": 6737,
      "Ġcyambere": 6738,
      "Ġfla": 6739,
      "Ġkutagira": 6740,
      "ĠMuseveni": 6741,
      "cle": 6742,
      "cucike": 6743,
      "OL": 6744,
      "ut": 6745,
      "ĠGatolika": 6746,
      "Ġzijyanye": 6747,
      "ĠHaba": 6748,
      "ĠIbipimo": 6749,
      "ĠRemera": 6750,
      "semburo": 6751,
      "Ġlift": 6752,
      ".âĢĶ": 6753,
      "tamine": 6754,
      "Ġrugero": 6755,
      "Ġbahita": 6756,
      "UKA": 6757,
      "!âĢĿ": 6758,
      "subizwa": 6759,
      "ĠFAR": 6760,
      "ĠCol": 6761,
      "ĠNyu": 6762,
      "yeshyamba": 6763,
      "Ġbutaziguye": 6764,
      "Ġmatsinda": 6765,
      "Ġkubara": 6766,
      "amavuta": 6767,
      "Ġurubyaro": 6768,
      "Ġaravuga": 6769,
      "zanira": 6770,
      "Ġyagarutse": 6771,
      "Ġujya": 6772,
      "ĠUmugore": 6773,
      "umwami": 6774,
      "ishyaka": 6775,
      "Ġkunanirwa": 6776,
      "Ġbyabigenewe": 6777,
      "Ġturebe": 6778,
      "Inteko": 6779,
      "Ġrwan": 6780,
      "Ġkugufasha": 6781,
      "giraga": 6782,
      "umve": 6783,
      "Ġnitsinda": 6784,
      "ĠUmukuru": 6785,
      "Ġcyitwa": 6786,
      "veri": 6787,
      "Ġbyubuvuzi": 6788,
      "Ġkoga": 6789,
      "hishu": 6790,
      "ĠCyiza": 6791,
      "teguro": 6792,
      "Mo": 6793,
      "banzi": 6794,
      "Ġmajyepfo": 6795,
      "tega": 6796,
      "ĠWil": 6797,
      "Ġyumucyo": 6798,
      "ĠDieu": 6799,
      "vangura": 6800,
      "yumvo": 6801,
      "ĠPatrick": 6802,
      "ĠGahunda": 6803,
      "yanditswe": 6804,
      "Ġinenge": 6805,
      "Ġbyagenze": 6806,
      "Ġtwabonye": 6807,
      "roc": 6808,
      "Ġibikomere": 6809,
      "Ġbirambye": 6810,
      "lvani": 6811,
      "geso": 6812,
      "Ġbyatewe": 6813,
      "Ġ800": 6814,
      "bber": 6815,
      "ĠImikino": 6816,
      "gororwa": 6817,
      "ĠSer": 6818,
      "cira": 6819,
      "Ġbwizewe": 6820,
      "04": 6821,
      "nel": 6822,
      "Ġihagaze": 6823,
      "ĠAbe": 6824,
      "Ġyakoresheje": 6825,
      "Ġkuryama": 6826,
      "Ġgitsina": 6827,
      "Ġigitambaro": 6828,
      "garagariza": 6829,
      "Ġ;": 6830,
      "Ġabahanga": 6831,
      "ĠSiporo": 6832,
      "ĠItegeko": 6833,
      "Ġbihamye": 6834,
      "umurimo": 6835,
      "Ġntambwe": 6836,
      "ĠGroup": 6837,
      "Ġyishimiye": 6838,
      "Ġahagana": 6839,
      "Ġguho": 6840,
      "abafatanyabikorwa": 6841,
      "Uruganda": 6842,
      "09": 6843,
      "Ġryabo": 6844,
      "yiko": 6845,
      "ĠGisagara": 6846,
      "33": 6847,
      "thiopi": 6848,
      "tine": 6849,
      "Ġmubyeyi": 6850,
      "Ġjye": 6851,
      "Ġgukubita": 6852,
      "lam": 6853,
      "rds": 6854,
      "ĠCyu": 6855,
      "Ġfu": 6856,
      "Ġmikuru": 6857,
      "Ġ)": 6858,
      "Ġishinga": 6859,
      "ahantu": 6860,
      "teraniro": 6861,
      "Ġbabyi": 6862,
      "kubye": 6863,
      "Ġindangagaciro": 6864,
      "Ġkomite": 6865,
      "Ġkoza": 6866,
      "ĠTuyi": 6867,
      "Ġyica": 6868,
      "ĠREG": 6869,
      "ĠHar": 6870,
      "Ġtuna": 6871,
      "Ġnkigi": 6872,
      "ransax": 6873,
      "sia": 6874,
      "loy": 6875,
      "fungurwa": 6876,
      "ĠProf": 6877,
      "rate": 6878,
      "umuhungu": 6879,
      "Ġumunyamakuru": 6880,
      "rican": 6881,
      "Ġingirakamaro": 6882,
      "soni": 6883,
      "ĠHyd": 6884,
      "Ġwizewe": 6885,
      "hwitse": 6886,
      "dorerwamo": 6887,
      "Ġsantimetero": 6888,
      "Ġgikoreshwa": 6889,
      "Ġkubakoresha": 6890,
      "Imashini": 6891,
      "sifu": 6892,
      "Ġyiga": 6893,
      "rabura": 6894,
      "Ġmikoro": 6895,
      "Ġreba": 6896,
      "resha": 6897,
      "Ġkwihangana": 6898,
      "viramo": 6899,
      "Ġbyanze": 6900,
      "gure": 6901,
      "Ġbaho": 6902,
      "Ġabazi": 6903,
      "Ġryibicuruzwa": 6904,
      "Ġigeze": 6905,
      "Ġumuyonga": 6906,
      "ranisha": 6907,
      "Ġimikoranire": 6908,
      "rengera": 6909,
      "Ġukwiye": 6910,
      "Ġbamwi": 6911,
      "shasa": 6912,
      "abikorera": 6913,
      "Ġzuzuye": 6914,
      "cibwa": 6915,
      "Ġimyuka": 6916,
      "lue": 6917,
      "gendana": 6918,
      "ĠUbushinjacyaha": 6919,
      "inyoma": 6920,
      "uturere": 6921,
      "ĠKinyarwanda": 6922,
      "Ġakan": 6923,
      "âĢ¢": 6924,
      "sitora": 6925,
      "Ġmucyo": 6926,
      "Ġmbo": 6927,
      "Ġkubisabwa": 6928,
      "Ġgutema": 6929,
      "Ġgushishika": 6930,
      "Ġibyiringiro": 6931,
      "pfi": 6932,
      "Ġgutora": 6933,
      "Ġgucika": 6934,
      "ĠRaporo": 6935,
      "Ġicyumweru": 6936,
      "ĠArse": 6937,
      "Ġasabwa": 6938,
      "ĠUmutekano": 6939,
      "Ġikibaho": 6940,
      "Ġkumuhanda": 6941,
      "Ġkuvugwa": 6942,
      "ndera": 6943,
      "lite": 6944,
      "Ġbukungu": 6945,
      "Ġgutonde": 6946,
      "Ġworoshye": 6947,
      "Ġagenga": 6948,
      "ĠBitewe": 6949,
      "Ġgusese": 6950,
      "chester": 6951,
      "ĠMer": 6952,
      "ĠTra": 6953,
      "shyuha": 6954,
      "94": 6955,
      "Ġguhuzwa": 6956,
      "75": 6957,
      "Ġ55": 6958,
      "Ġuke": 6959,
      "tunzi": 6960,
      "Ġkurubuga": 6961,
      "YAN": 6962,
      "Ġyinjiye": 6963,
      "shizwe": 6964,
      "tsibo": 6965,
      "Dufite": 6966,
      "ĠImbere": 6967,
      "butumwa": 6968,
      "Ġhare": 6969,
      "Ġwaje": 6970,
      "ĠWor": 6971,
      "Ġkubwi": 6972,
      "Ġyumusaruro": 6973,
      "Ġifoto": 6974,
      "Ġbyibuze": 6975,
      "Ġkugirana": 6976,
      "Ġbakamu": 6977,
      "Ġise": 6978,
      "Ġgushinga": 6979,
      "Ġuruziga": 6980,
      "Ġmishya": 6981,
      "mpaka": 6982,
      "Ġgutangwa": 6983,
      "ĠRic": 6984,
      "mwami": 6985,
      "mpu": 6986,
      "Ġzimaze": 6987,
      "gerage": 6988,
      "ĠButare": 6989,
      "Ġyavugaga": 6990,
      "Ġkutwandikira": 6991,
      "Ġbihuza": 6992,
      "Ġhaga": 6993,
      "Ġgipimo": 6994,
      "umuhanda": 6995,
      "ĠInstagram": 6996,
      "Ġntizi": 6997,
      "ĠTwishimiye": 6998,
      "Ġvacuum": 6999,
      "Ġijyanye": 7000,
      "Ġkwitondera": 7001,
      "Icya": 7002,
      "komoko": 7003,
      "ĠNdu": 7004,
      "Ġrworoshye": 7005,
      "ĠData": 7006,
      "Ġtwandi": 7007,
      "Ġgikoresho": 7008,
      "icyitegererezo": 7009,
      "kurire": 7010,
      "Ġruto": 7011,
      "ĠSita": 7012,
      "tambyi": 7013,
      "rambo": 7014,
      "vuriro": 7015,
      "Ġ2009": 7016,
      "Ġibihangano": 7017,
      "abaganga": 7018,
      "bika": 7019,
      "Ġgushimira": 7020,
      "Ġsiyansi": 7021,
      "ĠKw": 7022,
      "Ġdukeneye": 7023,
      "sivi": 7024,
      "Ġbushobozi": 7025,
      "ĠFERWAFA": 7026,
      "Ġduce": 7027,
      "Ġlaboratoire": 7028,
      "ĠYan": 7029,
      "Ġhegitari": 7030,
      "Ġyitabye": 7031,
      "Ġhashingiwe": 7032,
      "Ġmini": 7033,
      "ĠWin": 7034,
      "Inkotanyi": 7035,
      "Ġbimenyetso": 7036,
      "Ġhakurikijwe": 7037,
      "Ġzifatika": 7038,
      "Ġibin": 7039,
      "ĠMad": 7040,
      "Ġfirigo": 7041,
      "Ġbyavuzwe": 7042,
      "Ġibyatsi": 7043,
      "ingingo": 7044,
      "ĠIndabyo": 7045,
      "humeka": 7046,
      "amatora": 7047,
      "Ġgutuza": 7048,
      "Ġijisho": 7049,
      "ĠNu": 7050,
      "Ġkaga": 7051,
      "Ġwin": 7052,
      "Uburezi": 7053,
      "ĠPasiteri": 7054,
      "au": 7055,
      "rure": 7056,
      "SP": 7057,
      "Ġbyubaka": 7058,
      "ĠAbandi": 7059,
      "Ġimiyoborere": 7060,
      "ĠKigo": 7061,
      "Abaminisitiri": 7062,
      "Ġyakwi": 7063,
      "Ġbuhanga": 7064,
      "tangiriye": 7065,
      "Ġkugo": 7066,
      "Ġkuzaba": 7067,
      "Ġbakomoka": 7068,
      "koreraga": 7069,
      "Ġumunezero": 7070,
      "kurikiye": 7071,
      "tete": 7072,
      "Ġtwabi": 7073,
      "kanishi": 7074,
      "ranywa": 7075,
      "tama": 7076,
      "mpano": 7077,
      "Ġino": 7078,
      "Ġ|": 7079,
      "giraho": 7080,
      "Ġkwicara": 7081,
      "Kubera": 7082,
      "Ġudukoko": 7083,
      "Ġyinji": 7084,
      "Ġproto": 7085,
      "Ġselile": 7086,
      "gurube": 7087,
      "ĠAkagari": 7088,
      "songa": 7089,
      "Ġgaciro": 7090,
      "murwa": 7091,
      "ĠAbahamya": 7092,
      "Ġkurenga": 7093,
      "lles": 7094,
      "Ġuburozi": 7095,
      "Ġbiteguye": 7096,
      "garagajwe": 7097,
      "miye": 7098,
      "ĠAhubwo": 7099,
      "Ġgo": 7100,
      "Ġinjeniyeri": 7101,
      "biribwa": 7102,
      "Ġiwe": 7103,
      "Ubwoko": 7104,
      "bwu": 7105,
      "ĠNgororero": 7106,
      "itera": 7107,
      "Ġbihuye": 7108,
      "kubiri": 7109,
      "Ġ07": 7110,
      "ĠIngaruka": 7111,
      "ĠNteko": 7112,
      "shejwe": 7113,
      "Ġnga": 7114,
      "Ġatuye": 7115,
      "ĠAluminium": 7116,
      "Ġubushuhe": 7117,
      "Ġkwaguka": 7118,
      "yire": 7119,
      "roherane": 7120,
      "Ġcyabaye": 7121,
      "Ġudafite": 7122,
      "Ġyibicuruzwa": 7123,
      "ĠAbakozi": 7124,
      "tezwe": 7125,
      "2014": 7126,
      "Ġkunyurwa": 7127,
      "Ġbabyeyi": 7128,
      "Ġitandatu": 7129,
      "Ġburasirazuba": 7130,
      "ĠHakizimana": 7131,
      "ĠNyabihu": 7132,
      "Ġbisobanuro": 7133,
      "babaje": 7134,
      "Ġatangaza": 7135,
      "kurikiranye": 7136,
      "ĠIkimenyetso": 7137,
      "yita": 7138,
      "Ġmajyaruguru": 7139,
      "ĠInzu": 7140,
      "ĠGihugu": 7141,
      "Yagize": 7142,
      "EZ": 7143,
      "Ki": 7144,
      "Ġkumvikana": 7145,
      "Bya": 7146,
      "kwirakwira": 7147,
      "Ġure": 7148,
      "garitse": 7149,
      "ĠIngabire": 7150,
      "ĠVincent": 7151,
      "AK": 7152,
      "ls": 7153,
      "fatire": 7154,
      "Ġpara": 7155,
      "ĠNyarwanda": 7156,
      "Ġrushinzwe": 7157,
      "igikombe": 7158,
      "hwema": 7159,
      "peshyi": 7160,
      "Ġyinyuma": 7161,
      "Ġmva": 7162,
      "Ġzigezweho": 7163,
      "padiri": 7164,
      "Ġbase": 7165,
      "ĠNaho": 7166,
      "Ġkuguma": 7167,
      "yongeraho": 7168,
      "âĢĻâĢĻ": 7169,
      "Ġyaseze": 7170,
      "Ġbinyuranye": 7171,
      "eramic": 7172,
      "hanghai": 7173,
      "hirwa": 7174,
      "Ġunyu": 7175,
      "Ġbibu": 7176,
      "Ġmare": 7177,
      "ĠMart": 7178,
      "Ġbugaragara": 7179,
      "Ġumukandara": 7180,
      "ĠGatsibo": 7181,
      "ĠAli": 7182,
      "ngerewe": 7183,
      "Ġubwinshi": 7184,
      "ĠCN": 7185,
      "Buri": 7186,
      "ĠGuhuza": 7187,
      "ĠByu": 7188,
      "illa": 7189,
      "ĠInnocent": 7190,
      "Ġabashyitsi": 7191,
      "Ġoptique": 7192,
      "ĠMose": 7193,
      "Ġishyamba": 7194,
      "Ġfil": 7195,
      "Ġangana": 7196,
      "Ġ2008": 7197,
      "Ġgucana": 7198,
      "ĠAyo": 7199,
      "cucu": 7200,
      "mburwa": 7201,
      "Ġkubaga": 7202,
      "ĠManchester": 7203,
      "nateri": 7204,
      "Ġkuzimya": 7205,
      "Ġzingana": 7206,
      "dabyo": 7207,
      "ubusa": 7208,
      "Ingano": 7209,
      "ranwa": 7210,
      "tinyu": 7211,
      "Ġbishimira": 7212,
      "hangane": 7213,
      "ĠUmucyo": 7214,
      "ĠIbiranga": 7215,
      "rekeranye": 7216,
      "Ġukwizera": 7217,
      "Ġteleviziyo": 7218,
      "Ga": 7219,
      "Ġishimishije": 7220,
      "IE": 7221,
      "Ġbagu": 7222,
      "Ġ196": 7223,
      "Ġmub": 7224,
      "Ġbuka": 7225,
      "ĠEthiopi": 7226,
      "Ġgusobanura": 7227,
      "ws": 7228,
      "Ġkivuga": 7229,
      "ndation": 7230,
      "Ġhamaze": 7231,
      "Ġnyayo": 7232,
      "ĠParis": 7233,
      "mart": 7234,
      "Ġruba": 7235,
      "2018": 7236,
      "ransaxle": 7237,
      "car": 7238,
      "Ġ000": 7239,
      "Ġimvugo": 7240,
      "simbuza": 7241,
      "Ġbahuriye": 7242,
      "ĠMugisha": 7243,
      "Ġvidewo": 7244,
      "Ġnkaba": 7245,
      "ĠIngu": 7246,
      "ĠItorero": 7247,
      "ibiza": 7248,
      "Ġgusaza": 7249,
      "Ġguteranya": 7250,
      "CD": 7251,
      "Ġnyir": 7252,
      "Ġsima": 7253,
      "Ġnubundi": 7254,
      "gwate": 7255,
      "Ġmiti": 7256,
      "Ġkum": 7257,
      "nald": 7258,
      "Ġtwandikire": 7259,
      "Ġugenda": 7260,
      "Ġam": 7261,
      "tondere": 7262,
      "Ġcyara": 7263,
      "twarwa": 7264,
      "ĠBuhinde": 7265,
      "ping": 7266,
      "ĠNka": 7267,
      "mvira": 7268,
      "ĠINK": 7269,
      "ĠKinshasa": 7270,
      "ranyijwe": 7271,
      "zamure": 7272,
      "Ġibaruwa": 7273,
      "Ġgutsindwa": 7274,
      "lozo": 7275,
      "ami": 7276,
      "book": 7277,
      "abahanzi": 7278,
      "Ġbwanjye": 7279,
      "Ġbwuru": 7280,
      "tegurwa": 7281,
      "tasi": 7282,
      "tabara": 7283,
      "ĠItangazo": 7284,
      "umuhanzi": 7285,
      "Ubumwe": 7286,
      "Ġbize": 7287,
      "ĠSho": 7288,
      "Ġnigice": 7289,
      "Ġmaboko": 7290,
      "shimishijwe": 7291,
      "Ġkugumana": 7292,
      "amakipe": 7293,
      "Ġicyatsi": 7294,
      "ĠYongeyeho": 7295,
      "Ġishema": 7296,
      "ĠMwi": 7297,
      "Ġyimashini": 7298,
      "Se": 7299,
      "Ġyakira": 7300,
      "MIN": 7301,
      "Ġimitima": 7302,
      "con": 7303,
      "Ġbumenyi": 7304,
      "Ġzishingiye": 7305,
      "kumi": 7306,
      "Ġimitwaro": 7307,
      "Ġbabigize": 7308,
      "Ġmubyi": 7309,
      "kuko": 7310,
      "Ġinyo": 7311,
      "ĠParuwasi": 7312,
      "ĠBla": 7313,
      "Ġakorera": 7314,
      "yandikisha": 7315,
      "zz": 7316,
      "Ġkumena": 7317,
      "komo": 7318,
      "Ġkirashobora": 7319,
      "Ġmuki": 7320,
      "Ġ195": 7321,
      "vuge": 7322,
      "ibice": 7323,
      "ubwenge": 7324,
      "cis": 7325,
      "ĠFlo": 7326,
      "Ġaje": 7327,
      "ĠAbagabo": 7328,
      "Ġkwiruka": 7329,
      "Ġigiti": 7330,
      "genera": 7331,
      "komereza": 7332,
      "Ġgutegurwa": 7333,
      "ĠTuza": 7334,
      "nje": 7335,
      "Ġakabi": 7336,
      "kundiro": 7337,
      "ĠBimwe": 7338,
      "manywa": 7339,
      "Ã©e": 7340,
      "Ġkuti": 7341,
      "mene": 7342,
      "lse": 7343,
      "ĠRF": 7344,
      "ĠNyamira": 7345,
      "terane": 7346,
      "Ġkubaza": 7347,
      "ĠVic": 7348,
      "Ġ42": 7349,
      "Ġibanga": 7350,
      "Ġurebye": 7351,
      "Ġyohereza": 7352,
      "ĠMicro": 7353,
      "Ã§": 7354,
      "mide": 7355,
      "banjirije": 7356,
      "Te": 7357,
      "Ġmuka": 7358,
      "Ġbizana": 7359,
      "enter": 7360,
      "Ġ?": 7361,
      "Ġbwin": 7362,
      "Ġimisumari": 7363,
      "twikiriye": 7364,
      "ĠIcyitegererezo": 7365,
      "Ġbikoresha": 7366,
      "ĠKoperative": 7367,
      "37": 7368,
      "Ġzingenzi": 7369,
      "Ġakomoka": 7370,
      "yindi": 7371,
      "Ġkitagira": 7372,
      "ĠMukan": 7373,
      "hol": 7374,
      "Ġmurima": 7375,
      "Ġisabukuru": 7376,
      "tha": 7377,
      "Ġyashyizweho": 7378,
      "Ġtwuba": 7379,
      "ĠMesh": 7380,
      "generwa": 7381,
      "sabimana": 7382,
      "Ġyahoze": 7383,
      "Ġyatangarije": 7384,
      "Ġyaravuze": 7385,
      "ibitaro": 7386,
      "ĠSteel": 7387,
      "ftware": 7388,
      "romo": 7389,
      "zingo": 7390,
      "Ġngiye": 7391,
      "geranyo": 7392,
      "wanye": 7393,
      "Ġkitari": 7394,
      "ĠEl": 7395,
      "Ġwubucuruzi": 7396,
      "ĠCanada": 7397,
      "tegerejwe": 7398,
      "kopi": 7399,
      "Ġbishimiye": 7400,
      "ĠPE": 7401,
      "imihindagurikire": 7402,
      "Ġibyabaye": 7403,
      "Ġibikinisho": 7404,
      "ĠPorogaramu": 7405,
      "36": 7406,
      "neuma": 7407,
      "ĠSAC": 7408,
      "OC": 7409,
      "Ġinkingi": 7410,
      "ĠAmahoro": 7411,
      "icyiciro": 7412,
      "Ġcyakozwe": 7413,
      "ves": 7414,
      "Ġntiyi": 7415,
      "kobo": 7416,
      "Ġbafashwe": 7417,
      "ĠMwa": 7418,
      "ĠRw": 7419,
      "rori": 7420,
      "Ġwabereye": 7421,
      "tandukana": 7422,
      "roshya": 7423,
      "Kandi": 7424,
      "duce": 7425,
      "ĠSP": 7426,
      "Ġcompressor": 7427,
      "TE": 7428,
      "Ġkuku": 7429,
      "bugenewe": 7430,
      "ĠKuzamura": 7431,
      "ĠNyaruguru": 7432,
      "ĠBasketball": 7433,
      "mezwa": 7434,
      "shyikirano": 7435,
      "Ġiremereye": 7436,
      "Ġrwibutso": 7437,
      "Ġntibishobora": 7438,
      "ifu": 7439,
      "lozofiya": 7440,
      "ĠYari": 7441,
      "Ġsoko": 7442,
      "hanwa": 7443,
      "teur": 7444,
      "komeretse": 7445,
      "Ġipamba": 7446,
      "ĠNyampinga": 7447,
      "Ġcyuba": 7448,
      "pantaro": 7449,
      "king": 7450,
      "Ġlithium": 7451,
      "Ġmugutezimbere": 7452,
      "Ġbasa": 7453,
      "Ġgaranti": 7454,
      "Ġmunani": 7455,
      "Ġyubwenge": 7456,
      "ĠPariki": 7457,
      ".)": 7458,
      "bel": 7459,
      "Ġntishobora": 7460,
      "Ġbahuye": 7461,
      "ZI": 7462,
      "ĠLou": 7463,
      "ĠGasana": 7464,
      "Ġyepfo": 7465,
      "tabaza": 7466,
      "Ġadu": 7467,
      "vugana": 7468,
      "ther": 7469,
      "fuje": 7470,
      "Ġnkin": 7471,
      "Ġnkunga": 7472,
      "Ġrida": 7473,
      "Ġgusenya": 7474,
      "Ġbyarangiye": 7475,
      "ORA": 7476,
      "tumba": 7477,
      "gwiro": 7478,
      "ĠKwamamaza": 7479,
      "ream": 7480,
      "Ġwambere": 7481,
      "Ġgitero": 7482,
      "Ġibe": 7483,
      "ĠSun": 7484,
      "Ġyumubiri": 7485,
      "mbya": 7486,
      "Ġububabare": 7487,
      "ĠGisenyi": 7488,
      "URA": 7489,
      "rand": 7490,
      "Ġrinini": 7491,
      "leyball": 7492,
      "Ġimico": 7493,
      "ĠAbakinnyi": 7494,
      "ĠYohana": 7495,
      "Ġiherezo": 7496,
      "Ġuhagije": 7497,
      "Ġkigaragaza": 7498,
      "abasirikare": 7499,
      "byongeyeho": 7500,
      "ĠIgipimo": 7501,
      "Ġkureka": 7502,
      "Abadepite": 7503,
      "Ġminini": 7504,
      "34": 7505,
      "sezi": 7506,
      "Ġbyihuta": 7507,
      "ibyaha": 7508,
      "cakubiri": 7509,
      "Ic": 7510,
      "anzi": 7511,
      "Ġcla": 7512,
      "ĠFou": 7513,
      "ĠMarine": 7514,
      "Ġgusesengura": 7515,
      "Ġbon": 7516,
      "Ġtwumva": 7517,
      "Ġimbaho": 7518,
      "Ġaru": 7519,
      "Ġakomeje": 7520,
      "ĠJac": 7521,
      "Ġkwegukana": 7522,
      "Ġbuvuzi": 7523,
      "ĠMali": 7524,
      "ot": 7525,
      "Ġukiri": 7526,
      "Imari": 7527,
      "Ġugera": 7528,
      "mail": 7529,
      "Ġamashyamba": 7530,
      "Ġyasanze": 7531,
      "tunganywa": 7532,
      "Ġbukaba": 7533,
      "uruza": 7534,
      "ĠSam": 7535,
      "Ġimpa": 7536,
      "ĠArsenal": 7537,
      "cara": 7538,
      "tsweho": 7539,
      "umwanya": 7540,
      "aha": 7541,
      "Ġcyinshi": 7542,
      "Ġwera": 7543,
      "herereza": 7544,
      "Ġmubyuma": 7545,
      "ĠIfu": 7546,
      "zambi": 7547,
      "Ġkwama": 7548,
      "Ġmanini": 7549,
      "tus": 7550,
      "kusan": 7551,
      "shishi": 7552,
      "Ġrure": 7553,
      "Ġbiyemeje": 7554,
      "Ġrikaba": 7555,
      "Ġmpa": 7556,
      ");": 7557,
      "WAN": 7558,
      "lf": 7559,
      "âģ": 7560,
      "Ġbishimishije": 7561,
      "gororotse": 7562,
      "Ġkuyikoresha": 7563,
      "ĠHitamo": 7564,
      "Reba": 7565,
      "Ġishaka": 7566,
      "Ġatanu": 7567,
      "Ġikana": 7568,
      "Ġnimero": 7569,
      "sumba": 7570,
      "psu": 7571,
      "Ġgihembwe": 7572,
      "ĠIkirangantego": 7573,
      "Imyenda": 7574,
      "baya": 7575,
      "gitura": 7576,
      "manzi": 7577,
      "Ġiroroshye": 7578,
      "Ġkwihutisha": 7579,
      "uburebure": 7580,
      "Ġagahinda": 7581,
      "manika": 7582,
      "Ġigu": 7583,
      "Ġkugerwaho": 7584,
      "Ġkunyeganyega": 7585,
      "Ġbikagabanya": 7586,
      "Ġhatandukanye": 7587,
      "Ġruzinduko": 7588,
      "Ġkika": 7589,
      "Ġbikuru": 7590,
      "rongera": 7591,
      "boni": 7592,
      "tandaro": 7593,
      "ĠImyitozo": 7594,
      "buhamya": 7595,
      "Ġgukomeye": 7596,
      "ĠAri": 7597,
      "Ġamatsinda": 7598,
      "FC": 7599,
      "Ġmubyukuri": 7600,
      "Ġbakina": 7601,
      "Ġcyenda": 7602,
      "tarenze": 7603,
      "Ġumukuru": 7604,
      "MC": 7605,
      "icyaha": 7606,
      "banire": 7607,
      "ĠPerefe": 7608,
      "ĠDiyo": 7609,
      "Ġbitwara": 7610,
      "Ġkwipimisha": 7611,
      "Ġkubuza": 7612,
      "Nk": 7613,
      "yenyeri": 7614,
      "Ġbukuru": 7615,
      "Ġabamu": 7616,
      "garagarira": 7617,
      "Ġnkaho": 7618,
      "Ubwami": 7619,
      "Ġitange": 7620,
      "ĠCle": 7621,
      "umvise": 7622,
      "Ġuyumunsi": 7623,
      "buranga": 7624,
      "Ġkwihuta": 7625,
      "Ġukundi": 7626,
      "Ġkomisiyo": 7627,
      "baga": 7628,
      "Ġhashobora": 7629,
      "Ġigitero": 7630,
      "Ġgikozwe": 7631,
      "byiniro": 7632,
      "Ġgukorerwa": 7633,
      "Ġyimyaka": 7634,
      "Ġgushishikariza": 7635,
      "ĠIkarita": 7636,
      "Ġivumbi": 7637,
      "meke": 7638,
      "Ġbyumye": 7639,
      "Ġroza": 7640,
      "Ġmasomo": 7641,
      "Ġkere": 7642,
      "shuli": 7643,
      "Ġicyayi": 7644,
      "stan": 7645,
      "Ġbashoboye": 7646,
      "Ġbiteza": 7647,
      "Ġradiyo": 7648,
      "Ġbiki": 7649,
      "gogo": 7650,
      "tique": 7651,
      "Ġkizwi": 7652,
      "abagize": 7653,
      "Ra": 7654,
      "pcs": 7655,
      "Ġnshingwabikorwa": 7656,
      "Ġbisi": 7657,
      "kinisha": 7658,
      "indura": 7659,
      "abavandimwe": 7660,
      "baha": 7661,
      "guriye": 7662,
      "Ġabafatanyabikorwa": 7663,
      "Ġbipimo": 7664,
      "Ġkawa": 7665,
      "Ġmumaso": 7666,
      "ml": 7667,
      "bako": 7668,
      "ĠTanzaniya": 7669,
      "tÃ©": 7670,
      "Ġkumeza": 7671,
      "Ġbarebe": 7672,
      "Ġbise": 7673,
      "Ġmibare": 7674,
      "Ġbitarenze": 7675,
      "ĠUmufuka": 7676,
      "mique": 7677,
      "ĠByinshi": 7678,
      "deo": 7679,
      "ĠFor": 7680,
      "Ġikamba": 7681,
      "pre": 7682,
      "ĠMani": 7683,
      "ĠUburebure": 7684,
      "Ġiheruka": 7685,
      "Ġitangira": 7686,
      "Ġuwitwa": 7687,
      "Ġbikubiyemo": 7688,
      "Ġhabonetse": 7689,
      "Ġingengo": 7690,
      "banki": 7691,
      "Ġkijyambere": 7692,
      "Ġtwifuza": 7693,
      "IY": 7694,
      "bola": 7695,
      "kuza": 7696,
      "shijeho": 7697,
      "cia": 7698,
      "Ġbisobanura": 7699,
      "ĠSoma": 7700,
      "licon": 7701,
      "ĠIshuri": 7702,
      "Ġbyimbitse": 7703,
      "Ġultra": 7704,
      "Ġyuburyo": 7705,
      "rise": 7706,
      "tobe": 7707,
      "Ġtumu": 7708,
      "celo": 7709,
      "Ġbyatuma": 7710,
      "PP": 7711,
      "siti": 7712,
      "Ġyishyu": 7713,
      "Ġbireba": 7714,
      "Iterambere": 7715,
      "ding": 7716,
      "Ġugabanye": 7717,
      "Ġkoherezwa": 7718,
      "Ġurufunguzo": 7719,
      "Ġmaremare": 7720,
      "Ubutegetsi": 7721,
      "ĠImpu": 7722,
      "Ġasaga": 7723,
      "stine": 7724,
      "mbia": 7725,
      "Ġcyuma": 7726,
      "Ġabivuga": 7727,
      "Ġimbuga": 7728,
      "tyoza": 7729,
      "ĠMW": 7730,
      "Ġabashinzwe": 7731,
      "ĠDen": 7732,
      "Ġritanga": 7733,
      "iterabwoba": 7734,
      "Nubwo": 7735,
      "tunguranye": 7736,
      "Ġnkambi": 7737,
      "Ġizakomeza": 7738,
      "95": 7739,
      "Ġgutegereza": 7740,
      "menyekane": 7741,
      "Ġnikoranabuhanga": 7742,
      "amakuru": 7743,
      "ibimuga": 7744,
      "AD": 7745,
      "rankunga": 7746,
      "Ġkabo": 7747,
      "riyemo": 7748,
      "ĠBiteganyijwe": 7749,
      "ling": 7750,
      "Ġresitora": 7751,
      "ĠIkibaho": 7752,
      "gayi": 7753,
      "Ġkurwara": 7754,
      "ĠNiyi": 7755,
      "shyikiriza": 7756,
      "Ġkwirin": 7757,
      "ĠGenera": 7758,
      "twaza": 7759,
      "Ġubutwari": 7760,
      "ĠBinyuze": 7761,
      "karamu": 7762,
      "bumbe": 7763,
      "top": 7764,
      "hina": 7765,
      "hangayiko": 7766,
      "ngerwa": 7767,
      "Ġimirire": 7768,
      "Ġhakenewe": 7769,
      "Ġminisiteri": 7770,
      "Ġyakoraga": 7771,
      "ĠMou": 7772,
      "mariya": 7773,
      "Ġicupa": 7774,
      "Ġhagiye": 7775,
      "babaro": 7776,
      "Ġikore": 7777,
      "tory": 7778,
      "Ġbyagiye": 7779,
      "manu": 7780,
      "Ġbyubatswe": 7781,
      "ĠGlo": 7782,
      "yugariro": 7783,
      "UG": 7784,
      "Ġyakinnye": 7785,
      "ĠâĢ²": 7786,
      "Ġurugamba": 7787,
      "Ubucuruzi": 7788,
      "38": 7789,
      "Ġikosa": 7790,
      "Ġmuturage": 7791,
      "fuzwa": 7792,
      "enne": 7793,
      "Ġbyimi": 7794,
      "Ġkwabo": 7795,
      "shyikirizwa": 7796,
      "ĠMadrid": 7797,
      "Ġigorofa": 7798,
      "Ġurukurikirane": 7799,
      "Ġingana": 7800,
      "amahirwe": 7801,
      "Ġakaga": 7802,
      "Ġsuper": 7803,
      "Ġashingiye": 7804,
      "Ġbwimyaka": 7805,
      "Ġibiza": 7806,
      "ĠMozambi": 7807,
      "Ġgutoza": 7808,
      "Ġabigishwa": 7809,
      "Ġbigu": 7810,
      "Ġrushya": 7811,
      "raniye": 7812,
      "70": 7813,
      "Ġato": 7814,
      "abafana": 7815,
      "sahani": 7816,
      "ĠBurasirazuba": 7817,
      "amagare": 7818,
      "Ġbeto": 7819,
      "ĠSamu": 7820,
      "OTO": 7821,
      "ĠNyamirambo": 7822,
      "hamu": 7823,
      "Ġuruhushya": 7824,
      "Ġja": 7825,
      "Ġisomo": 7826,
      "Ġbyatangiye": 7827,
      "Ġyim": 7828,
      "umvikane": 7829,
      "ĠSACCO": 7830,
      "Ġmupaka": 7831,
      "ĠUmukozi": 7832,
      "Ġyimikorere": 7833,
      "Ġkwiyamamaza": 7834,
      "Ġirinda": 7835,
      "ĠUmutwe": 7836,
      "ĠEli": 7837,
      "Ġtwu": 7838,
      "Igisubizo": 7839,
      "Ġntoki": 7840,
      "Ġkwiyemeza": 7841,
      "Ġnubucuruzi": 7842,
      "ĠÂ»": 7843,
      "verter": 7844,
      "ĠSerivisi": 7845,
      "Ibisobanuro": 7846,
      "Ġningirakamaro": 7847,
      "//": 7848,
      "44": 7849,
      "Ġbasigaye": 7850,
      "ĠRwe": 7851,
      "sungane": 7852,
      "Ġinteko": 7853,
      "rwanira": 7854,
      "gg": 7855,
      "keka": 7856,
      "kurikiyeho": 7857,
      "ĠUrukuta": 7858,
      "Ġuburinganire": 7859,
      "uburenganzira": 7860,
      "ĠKurinda": 7861,
      "hutira": 7862,
      "Ġumurambo": 7863,
      "ĠFilime": 7864,
      "Ġkuroba": 7865,
      "ĠUmuhanda": 7866,
      "comeka": 7867,
      "Ġsoftware": 7868,
      "hagaritswe": 7869,
      "bikoze": 7870,
      "ĠUmutoza": 7871,
      "Uburusiya": 7872,
      "Ġkurekura": 7873,
      "hen": 7874,
      "Ġbyumwi": 7875,
      "2017": 7876,
      "Ġgutyo": 7877,
      "yoborwa": 7878,
      "senateri": 7879,
      "ĠUmukino": 7880,
      "shimiyimana": 7881,
      "Ġbiko": 7882,
      "Ġwihariye": 7883,
      "ĠMelo": 7884,
      "Ġbafitanye": 7885,
      "Bu": 7886,
      "SI": 7887,
      "rizwamo": 7888,
      "Ġuvuye": 7889,
      "ĠIhuriro": 7890,
      "Ġnibyingenzi": 7891,
      "port": 7892,
      "Ġaraba": 7893,
      "Ġcyibikoresho": 7894,
      "ngwe": 7895,
      "rukiramuco": 7896,
      "ĠIndi": 7897,
      "Ġkubwira": 7898,
      "buno": 7899,
      "hendutse": 7900,
      "Ġbigiye": 7901,
      "Ġkurangira": 7902,
      "Ġyabitangaje": 7903,
      "Ġyashinzwe": 7904,
      "Ġibyokurya": 7905,
      "fer": 7906,
      "Ġingengabitekerezo": 7907,
      "Ġgishushanyo": 7908,
      "cebook": 7909,
      "inyubako": 7910,
      "Ġkugeraho": 7911,
      "Ġikwiranye": 7912,
      "tabirwa": 7913,
      "sifuzi": 7914,
      "ĠCup": 7915,
      "Ġbawu": 7916,
      "ĠEAC": 7917,
      "Ġbidu": 7918,
      "Ġbakavuga": 7919,
      "Ġruka": 7920,
      "Ġdukoresha": 7921,
      "ngeramo": 7922,
      "makaza": 7923,
      "Ġyashimye": 7924,
      "Ġrukaba": 7925,
      "ĠDR": 7926,
      "ĠDan": 7927,
      "Ġkwifatanya": 7928,
      "ĠMba": 7929,
      "ĠUra": 7930,
      "Ġcyizewe": 7931,
      "dindi": 7932,
      "Ġimboga": 7933,
      "Ġkubucuruzi": 7934,
      "Ġuhindure": 7935,
      "tungamubiri": 7936,
      "nse": 7937,
      "sita": 7938,
      "Ġbwimbitse": 7939,
      "Ġtuzaba": 7940,
      "Ġgusiganwa": 7941,
      "CS": 7942,
      "uzure": 7943,
      "Ġbarangije": 7944,
      "Ġbashiki": 7945,
      "Ġyagaragaye": 7946,
      "ĠThi": 7947,
      "uwi": 7948,
      "Ġudasanzwe": 7949,
      "Ġtube": 7950,
      "Ġubwikorezi": 7951,
      "Ububanyi": 7952,
      "ĠEthiopia": 7953,
      "Nti": 7954,
      "Umwami": 7955,
      "sm": 7956,
      "Ġbundi": 7957,
      "Ġyonyine": 7958,
      "Ġrusengero": 7959,
      "fatiye": 7960,
      "ĠIcyumba": 7961,
      "Ġukina": 7962,
      "Ġwongeyeho": 7963,
      "Ġmugari": 7964,
      "Ġgutumiza": 7965,
      "ĠFrancis": 7966,
      "let": 7967,
      "negihugu": 7968,
      "Ġnyaburanga": 7969,
      "Ġuduce": 7970,
      "Ġsina": 7971,
      "Ã´": 7972,
      "Ġbuga": 7973,
      "Ġinyamaswa": 7974,
      "Ġ39": 7975,
      "Ġryita": 7976,
      "Ġmusozi": 7977,
      "Ġroller": 7978,
      "hwanye": 7979,
      "Ġyagu": 7980,
      "Ġubwishingizi": 7981,
      "Isosiyete": 7982,
      "rgonomic": 7983,
      "Ġbatekereza": 7984,
      "YI": 7985,
      "Ġbapfuye": 7986,
      "ĠShanghai": 7987,
      "Ġryuzuye": 7988,
      "Ġubura": 7989,
      "Ġbingana": 7990,
      "Ġibitaramo": 7991,
      "ĠMuha": 7992,
      "Ġbitangaje": 7993,
      "Ġinkingo": 7994,
      "Ġmyitozo": 7995,
      "ĠIgenzura": 7996,
      "ĠPla": 7997,
      "Ġtransaxle": 7998,
      "Ġkwigana": 7999,
      "umurongo": 8000,
      "Ġshi": 8001,
      "rumasi": 8002,
      "Ġrwaba": 8003,
      "ĠAmafaranga": 8004,
      "Ġutagira": 8005,
      "Ġnamwe": 8006,
      "Ġ99": 8007,
      "Ġinkomoko": 8008,
      "Ġasigaye": 8009,
      "nyezamu": 8010,
      "Ġnyakwigendera": 8011,
      "robyi": 8012,
      "Ġindu": 8013,
      "Ġchar": 8014,
      "Ġubunararibonye": 8015,
      "ĠHejuru": 8016,
      "ĠINKURU": 8017,
      "mbabwe": 8018,
      "Ġriba": 8019,
      "Ġmugutanga": 8020,
      "ĠFoundation": 8021,
      "Ġau": 8022,
      "Ġyatumi": 8023,
      "Ġbwikora": 8024,
      "erry": 8025,
      "Ġwita": 8026,
      "ramutse": 8027,
      "piteni": 8028,
      "ĠChampi": 8029,
      "ira": 8030,
      "geranye": 8031,
      "Ġizajya": 8032,
      "remezo": 8033,
      "Ġbyatanzwe": 8034,
      "Ġzishinzwe": 8035,
      "ĠKuko": 8036,
      "Ġbabana": 8037,
      "Ġibihu": 8038,
      "Ġrita": 8039,
      "Ġabitabiriye": 8040,
      "9001": 8041,
      "inzobere": 8042,
      "ĠAmazu": 8043,
      "ĠBea": 8044,
      "ĠAc": 8045,
      "Ġhaka": 8046,
      "Ġkwicwa": 8047,
      "Ġwubu": 8048,
      "rikira": 8049,
      "herukaga": 8050,
      "ĠUmwi": 8051,
      "ĠIkinyarwanda": 8052,
      "Ġter": 8053,
      "Ġziva": 8054,
      "Ġkumunsi": 8055,
      "shyigikiwe": 8056,
      "gabanutse": 8057,
      "Ġyayoboye": 8058,
      "amabwiriza": 8059,
      "zamara": 8060,
      "ĠTurashobora": 8061,
      "Ġmyenda": 8062,
      "Ġuburinzi": 8063,
      "tingi": 8064,
      "None": 8065,
      "Ġtuki": 8066,
      "ĠEbola": 8067,
      "Abantu": 8068,
      "gosha": 8069,
      "tangarugero": 8070,
      "cial": 8071,
      "Ġbarwaye": 8072,
      "ĠUrutonde": 8073,
      "ĠFARDC": 8074,
      "gijwe": 8075,
      "Ġyigihe": 8076,
      "ĠKimi": 8077,
      "Ġntibu": 8078,
      "ĠPas": 8079,
      "Ġkwiyuhagira": 8080,
      "Ġmumwanya": 8081,
      "Ġyakoreshejwe": 8082,
      "Ġumurwayi": 8083,
      "Ġicapiro": 8084,
      "Ġyahuye": 8085,
      "Ġyemerera": 8086,
      "ĠIkintu": 8087,
      "ĠMurakaza": 8088,
      "ĠPor": 8089,
      "rome": 8090,
      "ĠYere": 8091,
      "31": 8092,
      "Ġubukonje": 8093,
      "Ġnyacyo": 8094,
      "ibinyabuzima": 8095,
      "abanyamahanga": 8096,
      "Ġabone": 8097,
      "ĠUrubyiruko": 8098,
      "Ġbiganisha": 8099,
      "cie": 8100,
      "toranijwe": 8101,
      "furiza": 8102,
      "Ġryawe": 8103,
      "Ġgeo": 8104,
      "Ġbunyu": 8105,
      "Ġryerekana": 8106,
      "Ġsilinderi": 8107,
      "hy": 8108,
      "Ġmashusho": 8109,
      "ĠBarcelo": 8110,
      "alth": 8111,
      "Ġbatandatu": 8112,
      "Ġrukuta": 8113,
      "Ġgahoro": 8114,
      "Ġumunyamabanga": 8115,
      "Ġkijyanye": 8116,
      "remye": 8117,
      "Ġkwishyira": 8118,
      "ĠPho": 8119,
      "mane": 8120,
      "Ġkorohereza": 8121,
      "Ġinzara": 8122,
      "umuyaga": 8123,
      "ĠAU": 8124,
      "ĠEva": 8125,
      "ĠGuma": 8126,
      "Ġninyungu": 8127,
      "ĠPT": 8128,
      "Ġbiteganijwe": 8129,
      "Ġbabaye": 8130,
      "hard": 8131,
      "ĠBityo": 8132,
      "://": 8133,
      "Ġbugomba": 8134,
      "Ġgutabara": 8135,
      "ĠJeannette": 8136,
      "55": 8137,
      "EF": 8138,
      "Ġcyamazi": 8139,
      "cama": 8140,
      "Ġiyobowe": 8141,
      "Ġrutahizamu": 8142,
      "ĠBruce": 8143,
      "Ġ!": 8144,
      "Ġbabashe": 8145,
      "ĠFuse": 8146,
      "ds": 8147,
      "Ġurw": 8148,
      "gamiye": 8149,
      "kaye": 8150,
      "tukura": 8151,
      "Ġkwibaza": 8152,
      "bide": 8153,
      "ĠKano": 8154,
      "ĠUmupira": 8155,
      "ndwa": 8156,
      "ĠUmurongo": 8157,
      "garikwa": 8158,
      "Ġbiryo": 8159,
      "Ġabarokotse": 8160,
      "ĠRose": 8161,
      "Ġnteko": 8162,
      "lli": 8163,
      "mas": 8164,
      "amabara": 8165,
      "sabaga": 8166,
      "Ġguhangayika": 8167,
      "Ġkugiti": 8168,
      "Ġutange": 8169,
      "gugu": 8170,
      "Ġbyibanze": 8171,
      "zamuye": 8172,
      "Ġgusanga": 8173,
      "ĠãĢ": 8174,
      "hereze": 8175,
      "ĠReal": 8176,
      "ĠUwiteka": 8177,
      "Ġbategereje": 8178,
      "gori": 8179,
      "Ġikirego": 8180,
      "Ġguhungabanya": 8181,
      "ĠGuang": 8182,
      "Ġkingana": 8183,
      "imirimo": 8184,
      "Ġtitanium": 8185,
      "Ġmuti": 8186,
      "Ġabaha": 8187,
      "Ġukuboko": 8188,
      "Ġhoteri": 8189,
      "Ġgusimburwa": 8190,
      "Ġbyabereye": 8191,
      "nganya": 8192,
      "sesengu": 8193,
      "sabe": 8194,
      "300": 8195,
      "yiriza": 8196,
      "Ġgusha": 8197,
      "gisijeni": 8198,
      "ĠRuse": 8199,
      "iy": 8200,
      "Ġfilozofiya": 8201,
      "ĠImibare": 8202,
      "Ġbio": 8203,
      "batse": 8204,
      "bahi": 8205,
      "Ġmwanzuro": 8206,
      "iryo": 8207,
      "politiki": 8208,
      "mbuzi": 8209,
      "2016": 8210,
      "suzume": 8211,
      "Ġkilometero": 8212,
      "Ġburigihe": 8213,
      "Ġkubuntu": 8214,
      "Kugirango": 8215,
      "mbiye": 8216,
      "Ġnigisubizo": 8217,
      "ĠSol": 8218,
      "ĠHong": 8219,
      "ĠUbuso": 8220,
      "kubise": 8221,
      "CA": 8222,
      "ĠIkizamini": 8223,
      "Ġkuvoma": 8224,
      "gie": 8225,
      "Ġhagomba": 8226,
      "Ġurupapuro": 8227,
      "lande": 8228,
      "Ġibitangaza": 8229,
      "ĠAbakora": 8230,
      "Ġubwicanyi": 8231,
      "forma": 8232,
      "Ġbasabye": 8233,
      "Ġumurenge": 8234,
      "Imiterere": 8235,
      "Ġ=": 8236,
      "Ġhana": 8237,
      "Ġumupaka": 8238,
      "Ġzisaga": 8239,
      "ĠCamero": 8240,
      "umwimerere": 8241,
      "Ġadashobora": 8242,
      "Ġyazi": 8243,
      "ĠAwa": 8244,
      "hangani": 8245,
      "sobanukiwe": 8246,
      "Ishami": 8247,
      "Le": 8248,
      "Ġubuntu": 8249,
      "Ġzidafite": 8250,
      "Ġnkubu": 8251,
      "umugoroba": 8252,
      "ĠMari": 8253,
      "amatara": 8254,
      "ibiyobyabwenge": 8255,
      "kode": 8256,
      "goma": 8257,
      "subirwamo": 8258,
      "Ġbushake": 8259,
      "Ġyatsindiye": 8260,
      "ĠÂ±": 8261,
      "Ġyamenye": 8262,
      "siwe": 8263,
      "pen": 8264,
      "Ġzakozwe": 8265,
      "ĠBari": 8266,
      "ĠKing": 8267,
      "Ġyishwe": 8268,
      "ĠSene": 8269,
      "Ġibyiyumvo": 8270,
      "ĠNkurunziza": 8271,
      "sohoza": 8272,
      "Ġamafunguro": 8273,
      "Ġrumaze": 8274,
      "Ġwewe": 8275,
      "Ġgusam": 8276,
      "Ġkurema": 8277,
      "ĠCentre": 8278,
      "kanywe": 8279,
      "ĠSy": 8280,
      "Ġogisijeni": 8281,
      "ĠIgorofa": 8282,
      "ĠCAF": 8283,
      "ĠEa": 8284,
      "ĠMaroc": 8285,
      "YO": 8286,
      "nara": 8287,
      "He": 8288,
      "amaso": 8289,
      "amagambo": 8290,
      "abata": 8291,
      "pfobya": 8292,
      "sed": 8293,
      "ĠImiyoboro": 8294,
      "hembe": 8295,
      "ĠSA": 8296,
      "ĠBuyapani": 8297,
      "Ġbabarirwa": 8298,
      "ĠDutanga": 8299,
      "Ġingoma": 8300,
      "Ġser": 8301,
      "ĠBio": 8302,
      "Umukuru": 8303,
      "Ġcyera": 8304,
      "ubwiyunge": 8305,
      "gishije": 8306,
      "Ġmavuta": 8307,
      "Ġatazi": 8308,
      "ĠMTN": 8309,
      "Ġyiswe": 8310,
      "Ġbyimodoka": 8311,
      "fatirwa": 8312,
      "Ġisuzuma": 8313,
      "Ġbakwi": 8314,
      "Ġryakozwe": 8315,
      "Ġusabwa": 8316,
      "ĠYabi": 8317,
      "bajije": 8318,
      "ĠFla": 8319,
      "gukora": 8320,
      "om": 8321,
      "Ġbyibi": 8322,
      "hangayikishijwe": 8323,
      "shingikiriza": 8324,
      "Ġurwa": 8325,
      "Ġmabi": 8326,
      "Ġyakoreye": 8327,
      "bwiraga": 8328,
      "Ġkubijyanye": 8329,
      "Ġgushidikanya": 8330,
      "Ġkuzirikana": 8331,
      "ĠUniver": 8332,
      "Ġakanya": 8333,
      "tishoboye": 8334,
      "Ġ04": 8335,
      "Abaturage": 8336,
      "Ġyigisha": 8337,
      "ĠKabuga": 8338,
      "nganiye": 8339,
      "yenzi": 8340,
      "Ġbajye": 8341,
      "kizo": 8342,
      "murizwa": 8343,
      "Ġnimwe": 8344,
      "Ġabasore": 8345,
      "kurikirwa": 8346,
      "Ġikaza": 8347,
      "ac": 8348,
      "Ġuva": 8349,
      "Ġelectrode": 8350,
      "terankunga": 8351,
      "Ġinyongera": 8352,
      "umukinnyi": 8353,
      "Itegeko": 8354,
      "Ġndu": 8355,
      "ĠNibyiza": 8356,
      "Uburemere": 8357,
      "Ġnibisobanuro": 8358,
      "Ġbivuye": 8359,
      "Ġbikonje": 8360,
      "ĠVC": 8361,
      "kiliya": 8362,
      "Ġduhuze": 8363,
      "Ġmubunini": 8364,
      "gurirwa": 8365,
      "camake": 8366,
      "mijwe": 8367,
      "Ġishyushye": 8368,
      "ĠUbundi": 8369,
      "Ġyahisemo": 8370,
      "abaguzi": 8371,
      "TU": 8372,
      "Ġikibuga": 8373,
      "ganiriza": 8374,
      "ĠYakobo": 8375,
      "Ġlo": 8376,
      "Ġgukomeretsa": 8377,
      "bashije": 8378,
      "sirwa": 8379,
      "Ġumufatanyabikorwa": 8380,
      "Ġkwanga": 8381,
      "Ġ85": 8382,
      "rmo": 8383,
      "Ġmuruganda": 8384,
      "Ġamaguru": 8385,
      "Ġawu": 8386,
      "ĠAbanyeshuri": 8387,
      "ĠZimbabwe": 8388,
      "ubwubatsi": 8389,
      "ĠRulin": 8390,
      "Nya": 8391,
      "ĠPlastike": 8392,
      "Ġmubijyanye": 8393,
      "Ġbihendutse": 8394,
      "Ġcyerekezo": 8395,
      "Ġicumu": 8396,
      "Ġkuvana": 8397,
      "Ġyongere": 8398,
      "ĠBS": 8399,
      "nyuka": 8400,
      "ĠâĢ²âĢ²": 8401,
      "Ġkara": 8402,
      "amashusho": 8403,
      "ĠUbubiko": 8404,
      "Umuco": 8405,
      "qui": 8406,
      "Sisitemu": 8407,
      "ĠPlat": 8408,
      "umutoza": 8409,
      "Ġidini": 8410,
      "Ġyigenga": 8411,
      "Ġbwamazi": 8412,
      "Ġplaque": 8413,
      "Ġwino": 8414,
      "mvikanye": 8415,
      "ĠSilicone": 8416,
      "Ġubwubatsi": 8417,
      "Ġibyumweru": 8418,
      "manswa": 8419,
      "Ġibirenge": 8420,
      "ĠMariya": 8421,
      "Ġ304": 8422,
      "nganiza": 8423,
      "Ġyize": 8424,
      "PRC": 8425,
      "ĠDavid": 8426,
      "].": 8427,
      "pha": 8428,
      "rea": 8429,
      "mbuwe": 8430,
      "ĠSin": 8431,
      "Ġukuriye": 8432,
      "Ġmole": 8433,
      "Ġstade": 8434,
      "Ġnibidukikije": 8435,
      "gejejwe": 8436,
      "holandi": 8437,
      "Ġbyubucuruzi": 8438,
      "Ġameze": 8439,
      "Ġburenze": 8440,
      "genzure": 8441,
      "Ġ01": 8442,
      "Ġningaruka": 8443,
      "jyanywe": 8444,
      "Ġikinyamakuru": 8445,
      "Ġkanda": 8446,
      "roka": 8447,
      "ĠKwe": 8448,
      "Ġumuringa": 8449,
      "izina": 8450,
      "mve": 8451,
      "nÃ©": 8452,
      "rill": 8453,
      "kel": 8454,
      "ĠGera": 8455,
      "Amahanga": 8456,
      "Ġihuze": 8457,
      "Af": 8458,
      "kh": 8459,
      "anu": 8460,
      "cyatsi": 8461,
      "Ġ95": 8462,
      "dendezo": 8463,
      "Ġuhoraho": 8464,
      "rumvikana": 8465,
      "amasezerano": 8466,
      "Ġmisozi": 8467,
      "ĠMeya": 8468,
      "AFOTO": 8469,
      "ĠVolleyball": 8470,
      "Ġabashoramari": 8471,
      "garagaze": 8472,
      "Ġpallet": 8473,
      "Ġflu": 8474,
      "nis": 8475,
      "ĠAmafoto": 8476,
      "ĠYakozwe": 8477,
      "iby": 8478,
      "Ġinzozi": 8479,
      "Ġukoreshe": 8480,
      "tex": 8481,
      "Ġnkiko": 8482,
      "buja": 8483,
      "Ġmpi": 8484,
      "iminota": 8485,
      "Ġitagira": 8486,
      "ĠAfrika": 8487,
      "iz": 8488,
      "tiro": 8489,
      "Ġimvu": 8490,
      "pakurura": 8491,
      "rekezi": 8492,
      "ĠIzo": 8493,
      "cukura": 8494,
      "Ġrusanzwe": 8495,
      "Ġkurwana": 8496,
      "inko": 8497,
      "ĠCP": 8498,
      "ĠEn": 8499,
      "Ġkwegera": 8500,
      "IKI": 8501,
      "Ġbasabwe": 8502,
      "dari": 8503,
      "Ġmbese": 8504,
      "Ġkar": 8505,
      "ĠIka": 8506,
      "Ġkinyejana": 8507,
      "isosiyete": 8508,
      "Ġgazi": 8509,
      "sto": 8510,
      "Ġbiribwa": 8511,
      "Ġbuhoraho": 8512,
      "68": 8513,
      "gizwa": 8514,
      "Ġubujura": 8515,
      "Ġpneuma": 8516,
      "ingengo": 8517,
      "Ġdushaka": 8518,
      "Ġbikaza": 8519,
      "Ġubusu": 8520,
      "Ġiboneka": 8521,
      "Ġkont": 8522,
      "rtz": 8523,
      "Ġisoni": 8524,
      "Ġmusaza": 8525,
      "bungabunga": 8526,
      "kuzimu": 8527,
      "Ġcm": 8528,
      "Ġririmo": 8529,
      "rurwa": 8530,
      "shimana": 8531,
      "ĠFrank": 8532,
      "Ġrwuzuye": 8533,
      "Ã§o": 8534,
      "Ġgukangurira": 8535,
      "mote": 8536,
      "gendeye": 8537,
      "Ġyanze": 8538,
      "burimbo": 8539,
      "Ġbabe": 8540,
      "ĠAbura": 8541,
      "Ġkwerekeza": 8542,
      "ĠRobert": 8543,
      "dagadura": 8544,
      "ĠMozambique": 8545,
      "99": 8546,
      "Ġuhisemo": 8547,
      "Ġbiragoye": 8548,
      "Ġchip": 8549,
      "hanagura": 8550,
      "Ġumuvandimwe": 8551,
      "limi": 8552,
      "foromo": 8553,
      "ĠRulindo": 8554,
      "Ġihindura": 8555,
      "Ġcyabereye": 8556,
      "umuziki": 8557,
      "riyeho": 8558,
      "rugo": 8559,
      "ĠNsabimana": 8560,
      "Ġntigi": 8561,
      "Urashobora": 8562,
      "Ġihita": 8563,
      "Ġbushyuhe": 8564,
      "dukunda": 8565,
      "Ġabasaba": 8566,
      "Ġmafoto": 8567,
      "Ġkungu": 8568,
      "Ġmutekano": 8569,
      "ĠIshimwe": 8570,
      "toine": 8571,
      "Ġyasuye": 8572,
      "Ġibishishwa": 8573,
      "Ġgafite": 8574,
      "ĠHabin": 8575,
      "Ġburya": 8576,
      "Ġpisine": 8577,
      "giramo": 8578,
      "pfundikizo": 8579,
      "Ġmushiki": 8580,
      "yoboka": 8581,
      "ĠKab": 8582,
      "Ġnibibazo": 8583,
      "Ġubuvugizi": 8584,
      "Ġmwuga": 8585,
      "Ġabonye": 8586,
      "Ġubukene": 8587,
      "Ġmitwe": 8588,
      "cation": 8589,
      "ĠNyamuneka": 8590,
      "thy": 8591,
      "zinga": 8592,
      "sity": 8593,
      "Ġashinjwa": 8594,
      "Amafoto": 8595,
      "Ġifuro": 8596,
      "gent": 8597,
      "abahungu": 8598,
      "Ġbibe": 8599,
      "Ġishyirahamwe": 8600,
      "Ġgake": 8601,
      "Ġbahora": 8602,
      "ĠCenter": 8603,
      "Ġubwayo": 8604,
      "IH": 8605,
      "hiye": 8606,
      "Ġhenshi": 8607,
      "Ġ44": 8608,
      "Ġyongeyeho": 8609,
      "pimwe": 8610,
      "ĠKoko": 8611,
      "ĠSC": 8612,
      "Ġkamwe": 8613,
      "Ġgare": 8614,
      "Iburengerazuba": 8615,
      "ay": 8616,
      "ĠNshinga": 8617,
      "guti": 8618,
      "Ġtugira": 8619,
      "yuzemo": 8620,
      "Ġconvo": 8621,
      "Ġyakuye": 8622,
      "ĠUSA": 8623,
      "Ġayobora": 8624,
      "Ġkuboneza": 8625,
      "nyo": 8626,
      "Ġintungamubiri": 8627,
      "Ġ08": 8628,
      "Ġidashobora": 8629,
      "ĠStar": 8630,
      "Ġwacyo": 8631,
      "Ġalbum": 8632,
      "Ġruhame": 8633,
      "ĠYanditswe": 8634,
      "Ġbanga": 8635,
      "ĠMunyan": 8636,
      "Ġyibanda": 8637,
      "ĠBro": 8638,
      "shura": 8639,
      "Umuyoboro": 8640,
      "cyangwa": 8641,
      "pment": 8642,
      "Ġbizamura": 8643,
      "Ġgikoni": 8644,
      "Ġbaganiriye": 8645,
      "Ġwatangiye": 8646,
      "Ġbyemejwe": 8647,
      "Ġruha": 8648,
      "Ġicy": 8649,
      "Ġakaya": 8650,
      "ĠMbese": 8651,
      "ngeweho": 8652,
      "Ġsy": 8653,
      "rekeje": 8654,
      "Ġicyicaro": 8655,
      "Ġmassage": 8656,
      "komereka": 8657,
      "ĠTheo": 8658,
      "bihe": 8659,
      "andiko": 8660,
      "Ġamahanga": 8661,
      "Ġbyibicuruzwa": 8662,
      "Ġdisiki": 8663,
      "Ġdioxyde": 8664,
      "ishyirahamwe": 8665,
      "Ġtugu": 8666,
      "impamvu": 8667,
      "Ġyingufu": 8668,
      "llo": 8669,
      "ĠNsan": 8670,
      "Ġumwarimu": 8671,
      "RP": 8672,
      "phi": 8673,
      "Ġmurwa": 8674,
      "tifu": 8675,
      "Ġmar": 8676,
      "kurikiraho": 8677,
      "rengagiza": 8678,
      "Ġimeri": 8679,
      "Ġashimira": 8680,
      "ĠMin": 8681,
      "ĠWu": 8682,
      "ĠUrukurikirane": 8683,
      "ĠKwibuka": 8684,
      "Ġkanwa": 8685,
      "Ġbigizwe": 8686,
      "ĠUwimana": 8687,
      "munwa": 8688,
      "Ġkujyana": 8689,
      "Ġbukangurambaga": 8690,
      "hati": 8691,
      "Ġbugaragaza": 8692,
      "Ġumusego": 8693,
      "koreshwe": 8694,
      "ĠJacque": 8695,
      "Ġtuti": 8696,
      "Ġbufasha": 8697,
      "amata": 8698,
      "ĠUmushinga": 8699,
      "Ġyemewe": 8700,
      "boka": 8701,
      "ineri": 8702,
      "Me": 8703,
      "Ubwi": 8704,
      "Ġnubuziranenge": 8705,
      "ĠRusange": 8706,
      "sabagina": 8707,
      "Ġikawa": 8708,
      "Ġmikorobe": 8709,
      "bal": 8710,
      "Ġyumurongo": 8711,
      "anye": 8712,
      "kecuru": 8713,
      "Ġimicungire": 8714,
      "ĠSamuel": 8715,
      "kumbi": 8716,
      "Ġamafi": 8717,
      "ngola": 8718,
      "Ġyaru": 8719,
      "table": 8720,
      "Ġburezi": 8721,
      "Ġyongeraho": 8722,
      "Ġabikorera": 8723,
      "Ġigitsina": 8724,
      "sabira": 8725,
      "ĠSt": 8726,
      "hato": 8727,
      "ĠElect": 8728,
      "Ġbirakenewe": 8729,
      "yeur": 8730,
      "tonda": 8731,
      "ĠRDB": 8732,
      "pagne": 8733,
      "urugendo": 8734,
      "ĠGusaba": 8735,
      "Ġiharanira": 8736,
      "Ġnic": 8737,
      "rwango": 8738,
      "Ġmama": 8739,
      "tabire": 8740,
      "Ġbagiranye": 8741,
      "Ġubugari": 8742,
      "Ġamashami": 8743,
      "ĠSosiyete": 8744,
      "Ġbitara": 8745,
      "Ġngoma": 8746,
      "inema": 8747,
      "ĠRichard": 8748,
      "Ġbarwayi": 8749,
      "Ġubushishozi": 8750,
      "Ġabata": 8751,
      "bitswe": 8752,
      "Ġbagamije": 8753,
      "Ġyasohoye": 8754,
      "ĠRP": 8755,
      "Ġkwiyubaka": 8756,
      "umubyeyi": 8757,
      "ttps": 8758,
      "Ġkorana": 8759,
      "Ġbwiherero": 8760,
      "humuriza": 8761,
      "Ġibihingwa": 8762,
      "abibumbye": 8763,
      "ĠIntumwa": 8764,
      "Ġituze": 8765,
      "byina": 8766,
      "hohotera": 8767,
      "Ġyatangije": 8768,
      "kiside": 8769,
      "ĠAt": 8770,
      "Ġwicyuma": 8771,
      "kurikizwa": 8772,
      "2019": 8773,
      "Ġngira": 8774,
      "Ġumucyo": 8775,
      "ĠIM": 8776,
      "Ġabahungu": 8777,
      "ĠPan": 8778,
      "ĠRuhengeri": 8779,
      "Be": 8780,
      "Ġgushonga": 8781,
      "Ġruga": 8782,
      "Ġtwinshi": 8783,
      "ĠRai": 8784,
      "Ġndimi": 8785,
      "Ġijosi": 8786,
      "bahiriza": 8787,
      "ĠIbibazo": 8788,
      "Ġpin": 8789,
      "Amahoro": 8790,
      "ĠLaser": 8791,
      "Ġprototy": 8792,
      "rebana": 8793,
      "Ġube": 8794,
      "Ġ54": 8795,
      "jora": 8796,
      "tteri": 8797,
      "Ġzifata": 8798,
      "Ġkiriya": 8799,
      "rweho": 8800,
      "intara": 8801,
      "Ġamarangamutima": 8802,
      "byoroshye": 8803,
      "Ġbagombaga": 8804,
      "Ġutwo": 8805,
      "bibi": 8806,
      "Ġrito": 8807,
      "hangarwa": 8808,
      "shywe": 8809,
      "sitara": 8810,
      "ĠIryo": 8811,
      "ĠPL": 8812,
      "ibu": 8813,
      "litike": 8814,
      "Ġbuhagije": 8815,
      "Ġnisosiyete": 8816,
      "ĠUR": 8817,
      "Ġcyanjye": 8818,
      "ndiro": 8819,
      "Uburasirazuba": 8820,
      "kemuka": 8821,
      "terial": 8822,
      "Ġibyu": 8823,
      "imbwa": 8824,
      "Ġtwishimiye": 8825,
      "Ġnabaguzi": 8826,
      "Ġchlo": 8827,
      "Ġinyangamugayo": 8828,
      "del": 8829,
      "Ġkwiya": 8830,
      "Ġkwimuka": 8831,
      "Ġmpinduka": 8832,
      "ĠAfrican": 8833,
      "ĠKanombe": 8834,
      "Ġikonje": 8835,
      "Ġbasore": 8836,
      "Ġakurikiranyweho": 8837,
      "suka": 8838,
      "Ġimihangayiko": 8839,
      "Ġnubushuhe": 8840,
      "Ġbyaje": 8841,
      "Ġkugabanywa": 8842,
      "Ġinzobere": 8843,
      "Ġimyambaro": 8844,
      "nywe": 8845,
      "Ġurukingo": 8846,
      "Ġmbogamizi": 8847,
      "ston": 8848,
      "Ġbakundana": 8849,
      "Ġyerekanye": 8850,
      "ĠComp": 8851,
      "Ġgushira": 8852,
      "Ġbirinde": 8853,
      "ĠIsirayeli": 8854,
      "og": 8855,
      "shen": 8856,
      "Ġifunguro": 8857,
      "Ġzitera": 8858,
      "umukuru": 8859,
      "ĠInterahamwe": 8860,
      "Ġconvoyeur": 8861,
      "Ġwigeze": 8862,
      "gwin": 8863,
      "shara": 8864,
      "Ġntiha": 8865,
      "Ġwagize": 8866,
      "Ġbaturuka": 8867,
      "Ġkugenzurwa": 8868,
      "Ġbigi": 8869,
      "ranzwe": 8870,
      "Ġimigozi": 8871,
      "inezeza": 8872,
      "ĠColo": 8873,
      "sezeranya": 8874,
      "Ġfarumasi": 8875,
      "yezu": 8876,
      "Ġgusuzu": 8877,
      "Ġzabakiriya": 8878,
      "ĠDiyosezi": 8879,
      "Ġisesengura": 8880,
      "Ġumukara": 8881,
      "Ġamakarita": 8882,
      "Ġgusinzira": 8883,
      "Ġbitekerezo": 8884,
      "Ġayoboye": 8885,
      "Ġbakan": 8886,
      "merwa": 8887,
      "Ġbyumutekano": 8888,
      "ĠAntoine": 8889,
      "hitemo": 8890,
      "Ġubunyangamugayo": 8891,
      "Ġkuringaniza": 8892,
      "amajwi": 8893,
      "andex": 8894,
      "66": 8895,
      "ĠCal": 8896,
      "garagarije": 8897,
      "ĠUmwaka": 8898,
      "Ġkiyaga": 8899,
      "Ibikorwa": 8900,
      "Ġubwitange": 8901,
      "Ġguhumurizwa": 8902,
      "Ġvitamine": 8903,
      "Ġashyira": 8904,
      "Ġibinyobwa": 8905,
      "2020": 8906,
      "ĠRusesabagina": 8907,
      "Ġhamenyekane": 8908,
      "ĠUbucuruzi": 8909,
      "subirwaho": 8910,
      "Ġyubusa": 8911,
      "fashanyo": 8912,
      "Ġkontineri": 8913,
      "hungabana": 8914,
      "Ġcharger": 8915,
      "ĠCyuma": 8916,
      "shyireho": 8917,
      "Ġzinc": 8918,
      "yoboraga": 8919,
      "sobanurwa": 8920,
      "twika": 8921,
      "Ġisukari": 8922,
      "minota": 8923,
      "Ġuriya": 8924,
      "Ġbazwi": 8925,
      "ĠBy": 8926,
      "Ġabagaragu": 8927,
      "Ġkoranabuhanga": 8928,
      "Ġbitaba": 8929,
      "Mi": 8930,
      "ruke": 8931,
      "Ġamabati": 8932,
      "Ġwitwaga": 8933,
      "Ġikigega": 8934,
      "Kugeza": 8935,
      "rereye": 8936,
      "marayika": 8937,
      "Ġniyi": 8938,
      "Ġidahwitse": 8939,
      "renza": 8940,
      "ĠKwizera": 8941,
      "Ġkuboha": 8942,
      "Ġbagakora": 8943,
      "umukunzi": 8944,
      "Ġkumiterere": 8945,
      "Ġkanini": 8946,
      "Ġinguni": 8947,
      "manye": 8948,
      "ĠIntambwe": 8949,
      "Ġbaravuga": 8950,
      "Ġbwagaragaje": 8951,
      "Ġkubidukikije": 8952,
      "Ġuhagaze": 8953,
      "Ġibibi": 8954,
      "ĠNki": 8955,
      "anditseho": 8956,
      "UC": 8957,
      "Ġzina": 8958,
      "Ġgukosora": 8959,
      "ĠChampions": 8960,
      "rohera": 8961,
      "ĠDonald": 8962,
      "Ġgukiza": 8963,
      "senya": 8964,
      "Ġtuyi": 8965,
      "sangaga": 8966,
      "Ġ2006": 8967,
      "Ġmahirwe": 8968,
      "Ġbabanje": 8969,
      "Ġgra": 8970,
      "Ġiterwa": 8971,
      "sarani": 8972,
      "sangiye": 8973,
      "Ġikurikirana": 8974,
      "Ġbihari": 8975,
      "Ġumwete": 8976,
      "Ġkub": 8977,
      "Ġamatsiko": 8978,
      "Ġ2007": 8979,
      "ssion": 8980,
      "rn": 8981,
      "Ġumuceri": 8982,
      "ĠGeor": 8983,
      "Ġbuntu": 8984,
      "Ġariwo": 8985,
      "vugwaho": 8986,
      "The": 8987,
      "Ġbutemewe": 8988,
      "ĠMachin": 8989,
      "dangamuntu": 8990,
      "liyari": 8991,
      "ĠFau": 8992,
      "cket": 8993,
      "Ġbizi": 8994,
      "kibazo": 8995,
      "red": 8996,
      "zerere": 8997,
      "ĠYork": 8998,
      "ĠNdetse": 8999,
      "kishije": 9000,
      "ĠIhuza": 9001,
      "Ġkacu": 9002,
      "Ġbanyarwanda": 9003,
      "ona": 9004,
      "koshi": 9005,
      "Ġyarwo": 9006,
      "Ġngufi": 9007,
      "sic": 9008,
      "Ġbapfa": 9009,
      "metseho": 9010,
      "Ġwakoze": 9011,
      "hangira": 9012,
      "ĠTh": 9013,
      "Ġbanduye": 9014,
      "Ġimizi": 9015,
      "kindi": 9016,
      "Ġyashakaga": 9017,
      "hereranye": 9018,
      "Ġ2003": 9019,
      "ĠDepite": 9020,
      "ĠNdayishimiye": 9021,
      "Ġintyoza": 9022,
      "Ġarambuye": 9023,
      "kariso": 9024,
      "Ġscrew": 9025,
      "salemu": 9026,
      "ĠSou": 9027,
      "baruwa": 9028,
      "kingira": 9029,
      "Ġukubera": 9030,
      "umuringa": 9031,
      "Ġrimaze": 9032,
      "Ġinkoko": 9033,
      "ral": 9034,
      "Ġamarangi": 9035,
      "Ġitsinze": 9036,
      "Ġagaragara": 9037,
      "Ġmugushushanya": 9038,
      "shyinguwe": 9039,
      "Ġumunyeshuri": 9040,
      "Ġkwikorera": 9041,
      "Ġntitu": 9042,
      "Ġbwerekana": 9043,
      "Ġibyangiritse": 9044,
      "Ġcyibicuruzwa": 9045,
      "ibre": 9046,
      "ĠSuper": 9047,
      "Ikirenga": 9048,
      "Ġbombo": 9049,
      "Ġumunaniro": 9050,
      "Ġnjyewe": 9051,
      "rorokere": 9052,
      "shop": 9053,
      "ĠDiane": 9054,
      "hur": 9055,
      "basiye": 9056,
      "ĠGhana": 9057,
      "Ġtwebwe": 9058,
      "Ġgutunga": 9059,
      "ĠBarcelona": 9060,
      "hiti": 9061,
      "himbano": 9062,
      "bwiherero": 9063,
      "subiye": 9064,
      "ĠIgikombe": 9065,
      "ĠPolyester": 9066,
      "Ġumuvugizi": 9067,
      "Ġmahoro": 9068,
      "ĠDamas": 9069,
      "Ġiriya": 9070,
      "Ġurwibutso": 9071,
      "Ġbiboneka": 9072,
      "cuku": 9073,
      "ĠMunye": 9074,
      "ĠUburusiya": 9075,
      "Ġbyubwenge": 9076,
[...]
